
#include "policy_net_model.h"
unsigned char g_model[] = {
  0x1c, 0x00, 0x00, 0x00, 0x54, 0x46, 0x4c, 0x33, 0x14, 0x00, 0x20, 0x00,
  0x1c, 0x00, 0x18, 0x00, 0x14, 0x00, 0x10, 0x00, 0x0c, 0x00, 0x00, 0x00,
  0x08, 0x00, 0x04, 0x00, 0x14, 0x00, 0x00, 0x00, 0x1c, 0x00, 0x00, 0x00,
  0x1c, 0x00, 0x00, 0x00, 0x74, 0x00, 0x00, 0x00, 0x4c, 0x13, 0x00, 0x00,
  0x5c, 0x13, 0x00, 0x00, 0x88, 0x16, 0x00, 0x00, 0x03, 0x00, 0x00, 0x00,
  0x00, 0x00, 0x00, 0x00, 0x02, 0x00, 0x00, 0x00, 0x34, 0x00, 0x00, 0x00,
  0x04, 0x00, 0x00, 0x00, 0xdc, 0xff, 0xff, 0xff, 0x08, 0x00, 0x00, 0x00,
  0x04, 0x00, 0x00, 0x00, 0x13, 0x00, 0x00, 0x00, 0x43, 0x4f, 0x4e, 0x56,
  0x45, 0x52, 0x53, 0x49, 0x4f, 0x4e, 0x5f, 0x4d, 0x45, 0x54, 0x41, 0x44,
  0x41, 0x54, 0x41, 0x00, 0x08, 0x00, 0x0c, 0x00, 0x08, 0x00, 0x04, 0x00,
  0x08, 0x00, 0x00, 0x00, 0x07, 0x00, 0x00, 0x00, 0x04, 0x00, 0x00, 0x00,
  0x13, 0x00, 0x00, 0x00, 0x6d, 0x69, 0x6e, 0x5f, 0x72, 0x75, 0x6e, 0x74,
  0x69, 0x6d, 0x65, 0x5f, 0x76, 0x65, 0x72, 0x73, 0x69, 0x6f, 0x6e, 0x00,
  0x09, 0x00, 0x00, 0x00, 0xd4, 0x12, 0x00, 0x00, 0xcc, 0x12, 0x00, 0x00,
  0xbc, 0x0e, 0x00, 0x00, 0xac, 0x00, 0x00, 0x00, 0xa4, 0x00, 0x00, 0x00,
  0x9c, 0x00, 0x00, 0x00, 0x94, 0x00, 0x00, 0x00, 0x74, 0x00, 0x00, 0x00,
  0x04, 0x00, 0x00, 0x00, 0xc2, 0xec, 0xff, 0xff, 0x04, 0x00, 0x00, 0x00,
  0x60, 0x00, 0x00, 0x00, 0x10, 0x00, 0x00, 0x00, 0x00, 0x00, 0x00, 0x00,
  0x08, 0x00, 0x0e, 0x00, 0x08, 0x00, 0x04, 0x00, 0x08, 0x00, 0x00, 0x00,
  0x10, 0x00, 0x00, 0x00, 0x24, 0x00, 0x00, 0x00, 0x00, 0x00, 0x06, 0x00,
  0x08, 0x00, 0x04, 0x00, 0x06, 0x00, 0x00, 0x00, 0x04, 0x00, 0x00, 0x00,
  0x00, 0x00, 0x00, 0x00, 0x0c, 0x00, 0x18, 0x00, 0x14, 0x00, 0x10, 0x00,
  0x0c, 0x00, 0x04, 0x00, 0x0c, 0x00, 0x00, 0x00, 0x81, 0xa9, 0xc5, 0xc5,
  0x1d, 0x39, 0xbf, 0x36, 0x03, 0x00, 0x00, 0x00, 0x02, 0x00, 0x00, 0x00,
  0x04, 0x00, 0x00, 0x00, 0x06, 0x00, 0x00, 0x00, 0x32, 0x2e, 0x31, 0x37,
  0x2e, 0x30, 0x00, 0x00, 0x2e, 0xed, 0xff, 0xff, 0x04, 0x00, 0x00, 0x00,
  0x10, 0x00, 0x00, 0x00, 0x31, 0x2e, 0x35, 0x2e, 0x30, 0x00, 0x00, 0x00,
  0x00, 0x00, 0x00, 0x00, 0x00, 0x00, 0x00, 0x00, 0xac, 0xea, 0xff, 0xff,
  0xb0, 0xea, 0xff, 0xff, 0xb4, 0xea, 0xff, 0xff, 0x56, 0xed, 0xff, 0xff,
  0x04, 0x00, 0x00, 0x00, 0x00, 0x0e, 0x00, 0x00, 0x3d, 0xbd, 0xcf, 0xbd,
  0xd2, 0x63, 0xcb, 0x3d, 0x0d, 0x5e, 0x1d, 0x3e, 0x1e, 0x42, 0x35, 0xbe,
  0x8d, 0xb0, 0x0c, 0x3e, 0xf2, 0xfa, 0x9d, 0x3d, 0x44, 0x70, 0x7b, 0xbd,
  0x4b, 0x6c, 0x1f, 0x3e, 0x69, 0xb5, 0xe8, 0xbd, 0x28, 0xf6, 0x06, 0x3d,
  0x08, 0xcf, 0xa7, 0x3c, 0xc6, 0x4f, 0xe0, 0x3d, 0x3c, 0x9d, 0x40, 0x3d,
  0x93, 0xcf, 0x1b, 0xbe, 0xc5, 0x87, 0x11, 0x3e, 0x48, 0xe7, 0xb0, 0xbc,
  0xcc, 0x37, 0x23, 0xbe, 0x6d, 0x0b, 0x0c, 0x3e, 0x52, 0xb0, 0xc4, 0x3d,
  0xe4, 0xe0, 0x0b, 0x3d, 0x3a, 0xf1, 0x3d, 0xbe, 0x6e, 0x73, 0xb7, 0x3d,
  0x38, 0xee, 0xa1, 0xbd, 0xfe, 0x81, 0x84, 0xbd, 0x8c, 0x91, 0xc9, 0xbd,
  0x33, 0x8a, 0x28, 0x3e, 0x20, 0x81, 0xcd, 0x3c, 0xb0, 0x2b, 0x31, 0xbc,
  0x4a, 0x46, 0xa6, 0x3d, 0x7c, 0x06, 0x64, 0xbd, 0xa0, 0xbe, 0x12, 0x3c,
  0x87, 0xf9, 0x1c, 0x3e, 0x00, 0x5b, 0x09, 0xbd, 0x0e, 0xa0, 0xd2, 0x3d,
  0xfc, 0x58, 0x42, 0xbe, 0xa0, 0xaf, 0x1f, 0x3c, 0x9e, 0xf3, 0xb7, 0x3d,
  0xff, 0x37, 0x04, 0x3e, 0xaf, 0xf0, 0xc1, 0xbd, 0xa6, 0x80, 0xd3, 0x3d,
  0x60, 0x56, 0xe6, 0x3c, 0x11, 0x6f, 0xe1, 0xbd, 0x72, 0xd9, 0xab, 0x3d,
  0x30, 0x7c, 0x98, 0xbd, 0x36, 0xc4, 0xfc, 0x3d, 0x06, 0xbc, 0x8b, 0x3d,
  0x14, 0x81, 0x4d, 0xbd, 0xa5, 0xa3, 0x03, 0x3e, 0xa7, 0x68, 0x28, 0x3e,
  0x86, 0x56, 0xc1, 0x3d, 0x04, 0xb3, 0xa8, 0xbd, 0x8e, 0x19, 0x8a, 0x3d,
  0x1a, 0xb0, 0x8e, 0xbd, 0xb0, 0x00, 0xdc, 0xbc, 0x91, 0xad, 0x1e, 0xbe,
  0xc3, 0x01, 0x35, 0x3e, 0xc6, 0x1f, 0x2b, 0xbe, 0x20, 0x59, 0x03, 0x3c,
  0xce, 0x8f, 0x11, 0xbe, 0xc8, 0x80, 0xbc, 0x3c, 0x72, 0xb5, 0x01, 0xbe,
  0x69, 0x63, 0x3d, 0xbe, 0xa1, 0x5f, 0x1c, 0x3e, 0x4e, 0x6e, 0x8e, 0x3d,
  0xbe, 0x97, 0xc5, 0x3d, 0x65, 0xb5, 0x50, 0xbe, 0x7f, 0x4d, 0x40, 0x3e,
  0x00, 0x38, 0x1e, 0xb9, 0x78, 0x57, 0x29, 0xbe, 0x17, 0xbb, 0x2c, 0x3e,
  0xe5, 0x16, 0x47, 0x3e, 0x9d, 0xc2, 0x11, 0xbe, 0x47, 0x3f, 0x2e, 0x3e,
  0xcc, 0xc8, 0x90, 0xbd, 0x2d, 0x33, 0x1d, 0x3e, 0xf9, 0x6c, 0x02, 0x3e,
  0xe0, 0xd6, 0xb5, 0x3b, 0xe0, 0xc1, 0xfa, 0x3b, 0x90, 0xa4, 0xc3, 0xbc,
  0xd8, 0x41, 0xfa, 0x3c, 0xa9, 0x26, 0x45, 0x3e, 0xbc, 0x59, 0x29, 0x3d,
  0x08, 0x50, 0x16, 0xbe, 0x84, 0xee, 0x62, 0x3d, 0xf4, 0x66, 0x67, 0xbd,
  0x2b, 0x74, 0xfb, 0xbd, 0xcf, 0x73, 0xca, 0xbd, 0xbc, 0x36, 0x47, 0xbd,
  0x4c, 0xac, 0x51, 0xbd, 0xff, 0x98, 0x40, 0x3e, 0xde, 0xaa, 0xa9, 0x3d,
  0x86, 0x44, 0xb5, 0x3d, 0x4e, 0x3f, 0xd0, 0x3d, 0xd8, 0x9c, 0x51, 0xbd,
  0x67, 0x58, 0xe3, 0xbd, 0xef, 0x73, 0x3a, 0xbe, 0x34, 0x7c, 0xe6, 0xbd,
  0x8a, 0xd9, 0xba, 0x3d, 0xac, 0x8d, 0x50, 0xbe, 0x75, 0x59, 0x07, 0x3e,
  0x18, 0x44, 0x1a, 0xbe, 0x31, 0x4e, 0x08, 0x3e, 0x66, 0xb8, 0xc3, 0x3d,
  0xec, 0x73, 0x1d, 0xbd, 0x60, 0x51, 0xf2, 0x3b, 0x86, 0xc9, 0xa0, 0x3d,
  0x8d, 0xd1, 0x36, 0xbe, 0x70, 0x00, 0x15, 0x3c, 0xda, 0x77, 0x10, 0xbe,
  0x57, 0x23, 0xcf, 0xbd, 0xc7, 0x56, 0x2f, 0x3e, 0x80, 0x24, 0x1d, 0xbd,
  0xa9, 0xcf, 0x05, 0x3e, 0x42, 0x3e, 0x83, 0x3d, 0xf2, 0xdf, 0x29, 0xbe,
  0xab, 0xf6, 0xbd, 0xbd, 0x1c, 0xab, 0x2d, 0xbe, 0x53, 0xd5, 0x35, 0x3e,
  0xa2, 0x61, 0x14, 0xbe, 0x50, 0x19, 0x8a, 0xbc, 0x3a, 0xde, 0xac, 0x3d,
  0x8a, 0x0a, 0x36, 0xbe, 0xe0, 0xd2, 0xde, 0xbb, 0x7e, 0x84, 0xad, 0x3d,
  0xc0, 0x39, 0x33, 0xbe, 0x37, 0x37, 0x03, 0x3e, 0x34, 0x32, 0x91, 0xbd,
  0xc0, 0xac, 0x19, 0xbe, 0xa0, 0x91, 0x49, 0x3c, 0xaa, 0x18, 0x38, 0xbe,
  0xcb, 0xc5, 0x27, 0x3e, 0xbe, 0x16, 0x93, 0xbd, 0xc8, 0x0b, 0x14, 0xbe,
  0xa6, 0xc4, 0x81, 0x3d, 0xc6, 0x3e, 0x82, 0x3d, 0xc7, 0xae, 0x01, 0xbe,
  0x00, 0x3d, 0x51, 0x3c, 0xa6, 0x42, 0xae, 0x3d, 0x83, 0xb0, 0x2b, 0xbe,
  0xa1, 0x0e, 0x10, 0x3e, 0x96, 0x60, 0x83, 0xbd, 0xe5, 0xfb, 0x23, 0x3e,
  0x14, 0x4b, 0x51, 0xbe, 0x76, 0x7d, 0xb8, 0x3d, 0xc0, 0xba, 0x01, 0xbb,
  0x47, 0x29, 0x24, 0x3e, 0x84, 0xb2, 0x31, 0x3d, 0x7c, 0x37, 0x90, 0xbd,
  0xe5, 0x9b, 0xdf, 0xbd, 0xbb, 0x94, 0xd9, 0xbd, 0x95, 0xff, 0x44, 0xbe,
  0x1c, 0x2b, 0x56, 0xbe, 0xe8, 0x94, 0xb4, 0xbc, 0xd7, 0xda, 0x3c, 0x3e,
  0x10, 0x36, 0x13, 0xbe, 0xa0, 0x4c, 0xfa, 0x3b, 0xf4, 0x84, 0x44, 0x3d,
  0xd8, 0x82, 0xd6, 0x3c, 0xe0, 0x33, 0x51, 0xbe, 0xe4, 0x08, 0x52, 0x3d,
  0xcc, 0x52, 0x77, 0x3d, 0x54, 0x4c, 0xf3, 0xbd, 0xcb, 0x5e, 0x23, 0x3e,
  0xa8, 0x5a, 0xfb, 0x3c, 0x48, 0x85, 0xa8, 0x3c, 0xee, 0xec, 0x01, 0xbe,
  0x7c, 0x34, 0x66, 0x3d, 0x87, 0x18, 0x48, 0x3e, 0x3f, 0xed, 0x1f, 0x3e,
  0x00, 0x5c, 0xcf, 0x3a, 0x5d, 0xca, 0x14, 0x3e, 0xc6, 0x50, 0x93, 0x3d,
  0x9f, 0xbb, 0x43, 0x3e, 0x03, 0xc0, 0x56, 0xbe, 0x68, 0xaa, 0xd2, 0xbd,
  0x32, 0xe8, 0x9e, 0x3d, 0x88, 0x2b, 0x59, 0xbd, 0xde, 0x37, 0xae, 0x3d,
  0xe7, 0x3f, 0x22, 0x3e, 0x80, 0xdd, 0x9c, 0x3b, 0x84, 0x6c, 0x5d, 0x3d,
  0x78, 0xcc, 0x96, 0x3c, 0xa0, 0x0f, 0xd3, 0xbd, 0x07, 0xea, 0xe5, 0xbd,
  0x75, 0x4a, 0x19, 0x3e, 0x8e, 0x76, 0xd7, 0xbd, 0x52, 0x09, 0xc2, 0x3d,
  0xb1, 0x72, 0xc1, 0xbd, 0xa6, 0x25, 0x48, 0xbe, 0x27, 0x1d, 0x05, 0x3e,
  0x7f, 0xbe, 0x41, 0xbe, 0x84, 0xb0, 0x03, 0xbe, 0x66, 0xc9, 0xa0, 0x3d,
  0xd8, 0x01, 0x4e, 0xbe, 0x20, 0x3b, 0x3e, 0xbd, 0x93, 0xaf, 0x12, 0x3e,
  0xea, 0x2e, 0x44, 0xbe, 0x6f, 0xa1, 0x3b, 0x3e, 0xd5, 0xf8, 0x54, 0x3e,
  0xc1, 0x8b, 0x20, 0x3e, 0x2e, 0x5c, 0xae, 0xbd, 0xa4, 0xb6, 0x41, 0xbe,
  0x90, 0xd7, 0xa7, 0xbc, 0x62, 0xf6, 0x8a, 0xbd, 0xc0, 0x38, 0xd2, 0xbd,
  0xe6, 0x64, 0xdb, 0x3d, 0x1c, 0xe4, 0xcb, 0xbd, 0xe8, 0x01, 0x45, 0xbd,
  0x18, 0x39, 0xa1, 0x3c, 0xa5, 0xcb, 0x44, 0x3e, 0xa2, 0x32, 0x8f, 0x3d,
  0xfa, 0x6f, 0xc1, 0x3d, 0x8e, 0xa9, 0xc5, 0x3d, 0x18, 0xb0, 0x77, 0xbd,
  0x72, 0x56, 0xc3, 0x3d, 0xf2, 0xa7, 0x48, 0xbe, 0x5a, 0x47, 0xba, 0x3d,
  0x00, 0x08, 0xad, 0xbd, 0xce, 0x71, 0x48, 0xbe, 0xab, 0x8a, 0xcb, 0xbd,
  0x90, 0x92, 0x0b, 0x3c, 0x4e, 0xcb, 0x99, 0x3d, 0x42, 0xd0, 0x1a, 0xbe,
  0xf4, 0xb0, 0x66, 0x3d, 0xdc, 0x7c, 0x95, 0xbd, 0xa4, 0x71, 0x03, 0xbe,
  0xb9, 0x5c, 0xe5, 0xbd, 0x22, 0xb4, 0x96, 0xbd, 0x82, 0x6e, 0x35, 0xbe,
  0x22, 0x25, 0x15, 0xbe, 0x78, 0x3e, 0x0d, 0xbe, 0xe0, 0x27, 0xf1, 0xbc,
  0x20, 0xd1, 0xda, 0x3c, 0x12, 0xaa, 0x29, 0xbe, 0x54, 0xd6, 0x45, 0xbe,
  0x0c, 0xaa, 0x0a, 0xbd, 0x89, 0x53, 0xd5, 0xbd, 0x0f, 0xfd, 0x12, 0x3e,
  0x75, 0x78, 0xea, 0xbd, 0x88, 0x20, 0x98, 0xbd, 0x3c, 0x9b, 0x2a, 0xbe,
  0xb2, 0xd9, 0xf6, 0x3d, 0x20, 0xb5, 0x18, 0x3d, 0x90, 0xf4, 0x67, 0xbd,
  0x41, 0xef, 0x2d, 0x3e, 0xbd, 0x92, 0x40, 0x3e, 0xb0, 0xa7, 0x62, 0xbd,
  0xd2, 0x4e, 0xfc, 0x3d, 0x6d, 0xe2, 0xe0, 0xbd, 0xd0, 0xf8, 0x59, 0xbd,
  0x34, 0x63, 0x44, 0xbd, 0xc0, 0xb2, 0x2c, 0xbd, 0xa6, 0xc2, 0xb5, 0x3d,
  0xc1, 0x3b, 0x56, 0x3e, 0xc6, 0x9a, 0x9c, 0xbd, 0x94, 0x51, 0x82, 0xbd,
  0x8f, 0x5f, 0xe0, 0xbd, 0xe9, 0x73, 0x13, 0x3e, 0x14, 0x7c, 0x0b, 0xbd,
  0x05, 0x17, 0xef, 0xbd, 0x87, 0x49, 0x4d, 0x3e, 0x57, 0x92, 0x41, 0x3e,
  0x5d, 0xca, 0x44, 0xbe, 0x0f, 0xd6, 0x4d, 0x3e, 0x3c, 0x59, 0xe4, 0xbd,
  0xc3, 0x02, 0x09, 0x3e, 0x60, 0x54, 0x21, 0xbe, 0x84, 0x1a, 0x68, 0xbd,
  0x4c, 0x2f, 0x7a, 0x3d, 0x4a, 0x7d, 0x9e, 0x3d, 0x84, 0xa8, 0x3c, 0x3d,
  0x16, 0x2c, 0x36, 0xbe, 0x55, 0xce, 0x06, 0xbe, 0xd7, 0x91, 0x08, 0x3e,
  0x52, 0x03, 0xd7, 0x3d, 0x28, 0x11, 0x89, 0xbc, 0xb4, 0x6b, 0xea, 0xbd,
  0xb8, 0x9b, 0x15, 0x3d, 0x47, 0x1c, 0x16, 0x3e, 0xc0, 0xeb, 0x55, 0xbd,
  0xbc, 0x1e, 0xa8, 0xbd, 0xe0, 0x14, 0x8c, 0xbc, 0xe5, 0xfc, 0x20, 0x3e,
  0x36, 0xf9, 0xa7, 0x3d, 0x22, 0xad, 0x14, 0xbe, 0x3e, 0x2e, 0xca, 0x3d,
  0x2c, 0x95, 0x4a, 0xbe, 0xd8, 0xe6, 0xda, 0x3c, 0xc4, 0x8f, 0x18, 0x3d,
  0xb4, 0xe6, 0x32, 0x3d, 0x20, 0xe2, 0xdd, 0xbd, 0x38, 0xff, 0x1b, 0xbe,
  0xf4, 0x58, 0x2d, 0xbe, 0xac, 0xe5, 0x5e, 0xbd, 0x95, 0xce, 0x2a, 0x3e,
  0xd7, 0x15, 0x24, 0x3e, 0xd6, 0x5b, 0xbe, 0x3d, 0xe4, 0x44, 0x64, 0x3d,
  0xfe, 0x45, 0xcb, 0xbd, 0x6d, 0xbd, 0x3d, 0x3e, 0xc0, 0xdf, 0xae, 0x3b,
  0xe0, 0x27, 0xdb, 0x3c, 0x75, 0x15, 0x1c, 0x3e, 0x3a, 0xa2, 0xaa, 0x3d,
  0x32, 0xc1, 0xb9, 0x3d, 0xee, 0x39, 0xb2, 0x3d, 0x52, 0x65, 0xdf, 0x3d,
  0xd5, 0x3c, 0x15, 0x3e, 0x40, 0x46, 0x31, 0xbc, 0x18, 0xa1, 0xf1, 0x3c,
  0x86, 0x26, 0xb8, 0xbd, 0xcd, 0x69, 0x3e, 0xbe, 0xb8, 0xa6, 0x91, 0xbc,
  0x22, 0x29, 0xb6, 0xbd, 0x4a, 0xe2, 0x50, 0xbe, 0x95, 0xb8, 0x55, 0xbe,
  0x3d, 0x79, 0xe1, 0xbd, 0x60, 0x9e, 0x14, 0xbe, 0x5b, 0x56, 0x1c, 0x3e,
  0x1c, 0xd6, 0x67, 0xbd, 0xe0, 0x4a, 0xa6, 0xbd, 0x3c, 0x68, 0xd2, 0xbd,
  0xb9, 0xb4, 0x50, 0xbe, 0x1c, 0x90, 0x77, 0xbd, 0x0f, 0x6c, 0x55, 0x3e,
  0x80, 0x0d, 0x7e, 0x3c, 0xb2, 0xdc, 0x01, 0xbe, 0xbc, 0xd0, 0x17, 0xbe,
  0x2b, 0x41, 0x19, 0xbe, 0x94, 0xc4, 0xeb, 0xbd, 0x5f, 0x81, 0xfb, 0xbd,
  0x16, 0xd9, 0x00, 0xbe, 0x78, 0x47, 0x4b, 0xbe, 0x93, 0xeb, 0x39, 0xbe,
  0x26, 0xc7, 0x83, 0x3d, 0x74, 0x9c, 0x4b, 0x3d, 0x26, 0x6b, 0x13, 0xbe,
  0x9a, 0xda, 0x3d, 0xbe, 0x7a, 0x49, 0x03, 0xbe, 0x74, 0x52, 0x38, 0xbd,
  0xb0, 0x8c, 0x4e, 0x3c, 0xe6, 0x41, 0xa5, 0x3d, 0xb4, 0xa3, 0x5c, 0xbd,
  0x8d, 0xcf, 0x54, 0x3e, 0x7e, 0xac, 0xd6, 0x3d, 0x35, 0x21, 0x27, 0x3e,
  0xf0, 0x1a, 0xf4, 0xbc, 0xb4, 0x83, 0x71, 0x3d, 0x74, 0x53, 0x99, 0xbd,
  0xb3, 0xcf, 0x48, 0x3e, 0x13, 0xe6, 0x07, 0x3e, 0x82, 0x91, 0x8e, 0x3d,
  0x10, 0x36, 0x4a, 0x3c, 0xfd, 0xbd, 0x32, 0x3e, 0x3c, 0x43, 0xf9, 0xbd,
  0xf9, 0x7e, 0x01, 0x3e, 0xe0, 0x74, 0xea, 0xbc, 0x50, 0x1f, 0x41, 0xbd,
  0x31, 0x4c, 0x08, 0x3e, 0x14, 0x08, 0x2e, 0x3d, 0x9e, 0x66, 0xe0, 0x3d,
  0xef, 0x85, 0x3f, 0x3e, 0xa8, 0x12, 0x87, 0x3c, 0x31, 0xe2, 0x42, 0x3e,
  0xe5, 0xfd, 0x13, 0x3e, 0x8e, 0x6b, 0xad, 0x3d, 0x3e, 0x54, 0x9d, 0xbd,
  0x79, 0x6b, 0x1e, 0x3e, 0x04, 0x2a, 0xbb, 0xbd, 0x93, 0x3e, 0x2e, 0xbe,
  0x59, 0x32, 0x52, 0x3e, 0xd1, 0x7c, 0x3d, 0x3e, 0xfc, 0xe4, 0x37, 0xbe,
  0x66, 0x8d, 0xc4, 0xbd, 0x51, 0xdf, 0x23, 0xbe, 0x70, 0x80, 0x22, 0xbe,
  0x4d, 0x40, 0xec, 0xbd, 0x60, 0xf7, 0xde, 0xbd, 0x1b, 0x1a, 0x05, 0x3e,
  0xf0, 0x80, 0xfe, 0xbc, 0x3a, 0xf5, 0xdd, 0x3d, 0xdd, 0x15, 0x4c, 0x3e,
  0xc0, 0xae, 0x6f, 0x3c, 0xef, 0x37, 0x32, 0xbe, 0x71, 0xb4, 0x21, 0x3e,
  0x91, 0xd2, 0x55, 0xbe, 0x7c, 0x9e, 0x0d, 0xbe, 0x73, 0x2c, 0x03, 0x3e,
  0x8f, 0x9b, 0x19, 0x3e, 0xe2, 0x23, 0xd7, 0x3d, 0xde, 0xdd, 0x89, 0x3d,
  0x5b, 0x3f, 0x2b, 0x3e, 0xd8, 0x2e, 0x4c, 0xbe, 0x8f, 0xfb, 0x15, 0xbe,
  0x6d, 0xc1, 0xb6, 0xbd, 0xc0, 0xef, 0x02, 0xbc, 0x12, 0xaf, 0xe5, 0x3d,
  0xd7, 0x95, 0xcd, 0xbd, 0x53, 0x87, 0xfd, 0xbd, 0x24, 0x23, 0x90, 0xbd,
  0x92, 0x2b, 0x9a, 0x3d, 0xe3, 0x3b, 0x33, 0xbe, 0xc5, 0x01, 0x42, 0x3e,
  0xbc, 0xac, 0x02, 0x3d, 0xf0, 0x75, 0x27, 0x3c, 0xf4, 0x9c, 0x1b, 0x3d,
  0xfc, 0xf6, 0x54, 0xbd, 0x28, 0xe4, 0x80, 0xbc, 0x45, 0x71, 0xde, 0xbd,
  0x7a, 0x8e, 0xad, 0x3d, 0x50, 0x83, 0xfa, 0x3c, 0xdb, 0xbd, 0x14, 0xbe,
  0x67, 0x7b, 0x3c, 0xbe, 0x02, 0x8b, 0x8f, 0x3d, 0xa6, 0xd3, 0xfb, 0x3d,
  0x30, 0x98, 0x89, 0x3c, 0x4c, 0x0f, 0xce, 0xbd, 0x76, 0xfc, 0xe0, 0xbd,
  0x73, 0x55, 0x49, 0x3e, 0x58, 0x8a, 0x25, 0xbe, 0x3c, 0x26, 0x6b, 0x3d,
  0x2b, 0x0d, 0x49, 0x3e, 0x7a, 0x13, 0x4b, 0xbe, 0xac, 0x97, 0x08, 0x3d,
  0x4c, 0x53, 0x19, 0xbd, 0x4a, 0xd8, 0x4f, 0xbe, 0xc0, 0x29, 0x9f, 0xbb,
  0xa7, 0x95, 0x00, 0x3e, 0x71, 0x0b, 0x28, 0xbe, 0xd7, 0x91, 0x43, 0xbe,
  0x20, 0x50, 0x55, 0x3c, 0x98, 0x5d, 0xe2, 0xbc, 0xd4, 0x66, 0x89, 0xbd,
  0xbb, 0x07, 0xb9, 0xbd, 0x8c, 0xf4, 0x00, 0xbd, 0x12, 0xa1, 0x0f, 0xbe,
  0x96, 0x70, 0x3c, 0xbe, 0x25, 0x56, 0x51, 0xbe, 0x5a, 0xa7, 0xa1, 0x3d,
  0x56, 0x9a, 0xb9, 0x3d, 0x64, 0x99, 0x7a, 0xbd, 0xf7, 0x7e, 0x1d, 0x3e,
  0x36, 0x35, 0x0e, 0xbe, 0xd2, 0x0b, 0x9e, 0x3d, 0x8d, 0xa4, 0x40, 0xbe,
  0xeb, 0xe5, 0x3a, 0x3e, 0x6a, 0xb2, 0x8d, 0x3d, 0x8d, 0x3c, 0x22, 0x3e,
  0xc4, 0xba, 0x04, 0xbe, 0x78, 0x27, 0x45, 0xbe, 0xa0, 0xe4, 0xc5, 0x3c,
  0x8b, 0x13, 0x49, 0x3e, 0xae, 0x7c, 0x9e, 0x3d, 0x22, 0x7f, 0xa2, 0x3d,
  0x79, 0x75, 0x04, 0xbe, 0xe0, 0x30, 0xd8, 0xbb, 0x80, 0xd0, 0x95, 0x3b,
  0x62, 0x9a, 0xf5, 0xbd, 0x3d, 0x3b, 0x1a, 0x3e, 0xd3, 0xcd, 0x1e, 0x3e,
  0x40, 0x81, 0x2b, 0x3c, 0x58, 0x5a, 0x22, 0xbe, 0x8a, 0x7f, 0xd0, 0x3d,
  0xce, 0xb2, 0x11, 0xbe, 0xf8, 0x1c, 0x41, 0xbe, 0xf2, 0xd5, 0x27, 0xbe,
  0x54, 0x30, 0x60, 0x3d, 0xff, 0xba, 0x15, 0xbe, 0xb8, 0x0c, 0xe2, 0x3c,
  0x20, 0x80, 0xd2, 0xbb, 0xf6, 0xc8, 0x1d, 0xbe, 0xcd, 0x22, 0x2c, 0xbe,
  0xc7, 0x81, 0xc8, 0xbd, 0xc0, 0xc8, 0x0e, 0x3c, 0xe0, 0x5d, 0x47, 0x3c,
  0x76, 0xa0, 0xcf, 0xbd, 0x6d, 0x18, 0xd5, 0xbd, 0xa8, 0x92, 0xe9, 0xbc,
  0x30, 0x9a, 0x99, 0x3c, 0xc0, 0x16, 0x6d, 0xbb, 0x40, 0x2f, 0xa0, 0x3c,
  0x90, 0xe4, 0xfc, 0xbc, 0x26, 0x32, 0xcf, 0x3d, 0xa9, 0x66, 0x12, 0x3e,
  0x22, 0x8c, 0xc2, 0x3d, 0x41, 0x6a, 0xee, 0xbd, 0xa8, 0xc9, 0x35, 0xbd,
  0xa6, 0x19, 0x24, 0xbe, 0x46, 0xd8, 0xb0, 0xbd, 0x14, 0xa6, 0x0e, 0xbe,
  0x89, 0x55, 0x3b, 0xbe, 0x00, 0x4e, 0x64, 0xba, 0xe5, 0x62, 0xd9, 0xbd,
  0x38, 0xf7, 0xb0, 0xbc, 0x18, 0x8f, 0xc6, 0xbc, 0x83, 0xd5, 0x22, 0x3e,
  0xfc, 0x79, 0x95, 0xbd, 0x32, 0x68, 0x51, 0xbe, 0xef, 0xba, 0xca, 0xbd,
  0x47, 0x51, 0x43, 0x3e, 0xed, 0x54, 0xdf, 0xbd, 0x1c, 0x69, 0x47, 0x3d,
  0x18, 0x65, 0x92, 0x3c, 0xa6, 0x27, 0xce, 0x3d, 0xe5, 0x14, 0xd7, 0xbd,
  0x3f, 0xa7, 0x2c, 0x3e, 0x16, 0xb4, 0xea, 0x3d, 0x1b, 0xfd, 0x0a, 0x3e,
  0x01, 0x7d, 0xca, 0xbd, 0x56, 0x3b, 0x2b, 0xbe, 0xe5, 0x87, 0x3f, 0xbe,
  0xbf, 0x7a, 0x1c, 0x3e, 0x2e, 0xf4, 0xfe, 0x3d, 0x62, 0x4e, 0x92, 0xbd,
  0x98, 0x30, 0xe5, 0x3c, 0x28, 0x27, 0x80, 0xbc, 0xd7, 0xdc, 0x23, 0x3e,
  0x6f, 0x0c, 0x1a, 0x3e, 0x5e, 0x32, 0xcd, 0x3d, 0xb6, 0x72, 0x80, 0x3d,
  0x08, 0x6d, 0xf4, 0x3c, 0x2c, 0x33, 0x65, 0xbd, 0xfa, 0x8a, 0x9b, 0x3d,
  0x48, 0x60, 0x0c, 0xbd, 0x30, 0x77, 0x9e, 0x3c, 0xa4, 0x12, 0x56, 0xbe,
  0xa0, 0xb4, 0x73, 0xbd, 0x36, 0x29, 0xeb, 0x3d, 0xe0, 0x29, 0x6c, 0x3c,
  0xad, 0x75, 0x4f, 0xbe, 0xf5, 0xdf, 0x48, 0x3e, 0x39, 0x1e, 0x37, 0xbe,
  0x7a, 0xa6, 0x37, 0xbe, 0x13, 0x42, 0x36, 0x3e, 0x2c, 0x6c, 0x05, 0xbe,
  0x5f, 0x33, 0x14, 0x3e, 0x34, 0x7a, 0x23, 0x3d, 0x87, 0xf5, 0x06, 0x3e,
  0x36, 0x12, 0xc3, 0x3d, 0x6f, 0x2e, 0x12, 0x3e, 0x28, 0x4c, 0xf0, 0xbd,
  0x5a, 0xba, 0x52, 0xbe, 0xed, 0x2d, 0x3b, 0x3e, 0x92, 0xe9, 0xce, 0x3d,
  0xe8, 0x36, 0xb2, 0x3c, 0x03, 0x7d, 0x36, 0x3e, 0x3e, 0x52, 0xd1, 0x3d,
  0x0d, 0x56, 0x57, 0x3e, 0x30, 0xf1, 0x32, 0x3c, 0x64, 0x44, 0x6e, 0xbd,
  0x4a, 0x16, 0x00, 0xbe, 0x9f, 0xd2, 0xcc, 0xbd, 0xa9, 0x80, 0x0a, 0x3e,
  0x5e, 0x3a, 0x1a, 0xbe, 0x30, 0x50, 0xd7, 0x3c, 0x46, 0x40, 0xfe, 0x3d,
  0xe1, 0x9b, 0xc3, 0xbd, 0x04, 0x05, 0x2a, 0xbd, 0x42, 0xdf, 0x4a, 0xbe,
  0x84, 0x53, 0x69, 0x3d, 0x59, 0xab, 0x3f, 0x3e, 0xb0, 0x93, 0x5d, 0xbc,
  0x66, 0x1d, 0xe3, 0x3d, 0x00, 0xf5, 0x4e, 0x3c, 0xc0, 0xaf, 0x85, 0x3c,
  0x10, 0x6e, 0xe9, 0xbd, 0xb0, 0xbd, 0xab, 0xbc, 0xd8, 0x45, 0x12, 0xbd,
  0x92, 0x20, 0xb2, 0x3d, 0x38, 0x37, 0x33, 0xbe, 0x89, 0x4a, 0x37, 0x3e,
  0xa0, 0x67, 0x82, 0xbc, 0xfd, 0xed, 0x1b, 0x3e, 0xa0, 0x2f, 0x03, 0x3c,
  0x62, 0xa5, 0xdb, 0xbd, 0x93, 0x5b, 0x0f, 0x3e, 0xc2, 0xb9, 0xb0, 0x3d,
  0x6f, 0xe8, 0xfd, 0xbd, 0x04, 0x89, 0xbd, 0xbd, 0x70, 0xcc, 0x33, 0x3c,
  0xaa, 0x90, 0xc8, 0x3d, 0x5a, 0xcd, 0x33, 0xbe, 0xef, 0x45, 0x26, 0x3e,
  0x7c, 0x68, 0x48, 0x3d, 0x1f, 0xc0, 0x4a, 0x3e, 0xd1, 0x56, 0x35, 0xbe,
  0x2a, 0x91, 0xe3, 0x3d, 0x66, 0x47, 0xac, 0x3d, 0x92, 0x1a, 0x22, 0xbe,
  0xef, 0x9a, 0x43, 0x3e, 0x9a, 0x37, 0x8b, 0x3d, 0xd3, 0xe0, 0x15, 0xbe,
  0x2e, 0x21, 0x8f, 0x3d, 0x38, 0x8f, 0x34, 0xbd, 0x5e, 0xa7, 0xd1, 0x3d,
  0xe2, 0xb6, 0xf6, 0x3d, 0x7f, 0x67, 0x54, 0x3e, 0xc4, 0x0a, 0x29, 0x3d,
  0xca, 0x30, 0xda, 0x3d, 0xbf, 0x15, 0xff, 0xbd, 0xf6, 0xe7, 0x40, 0xbe,
  0x75, 0x85, 0x1c, 0x3e, 0x8e, 0x2d, 0xa9, 0xbd, 0x90, 0xc1, 0x35, 0x3c,
  0x58, 0xd5, 0xcd, 0xbc, 0x90, 0xa5, 0xc4, 0x3c, 0x97, 0x80, 0x27, 0x3e,
  0xc4, 0x98, 0x28, 0x3d, 0x21, 0x55, 0x19, 0x3e, 0x1d, 0x52, 0xd3, 0xbd,
  0x69, 0x48, 0x43, 0x3e, 0x52, 0x7c, 0xf4, 0x3d, 0xb1, 0xd8, 0x18, 0x3e,
  0xa0, 0xb0, 0x99, 0x3b, 0xee, 0xbc, 0x96, 0xbd, 0xa2, 0x64, 0x06, 0xbe,
  0x30, 0x01, 0x49, 0xbc, 0xd8, 0x2b, 0x86, 0xbd, 0x09, 0x18, 0x49, 0x3e,
  0xcf, 0x5e, 0xfa, 0xbd, 0x5f, 0xf5, 0x2a, 0xbe, 0xe8, 0x4a, 0x9a, 0xbd,
  0xd0, 0x18, 0x65, 0xbd, 0x2c, 0x72, 0x73, 0x3d, 0x72, 0xcd, 0x4a, 0xbe,
  0x8a, 0x68, 0xac, 0xbd, 0xf5, 0x9d, 0x0a, 0x3e, 0xb8, 0x8a, 0x49, 0xbd,
  0x43, 0x26, 0xf0, 0xbd, 0x5c, 0x23, 0x3e, 0x3d, 0x39, 0x7a, 0x33, 0xbe,
  0x82, 0x77, 0xb4, 0xbd, 0xa8, 0x41, 0xb4, 0xbc, 0xe0, 0xd2, 0x1e, 0xbc,
  0xec, 0xd1, 0x19, 0xbe, 0x7c, 0x01, 0x49, 0xbd, 0x48, 0xf9, 0x94, 0x3c,
  0x42, 0xa7, 0xc2, 0x3d, 0x2a, 0x9f, 0xa1, 0x3d, 0x09, 0x6b, 0x08, 0x3e,
  0x06, 0x47, 0x45, 0xbe, 0x00, 0x8d, 0xca, 0x3a, 0x4c, 0xa6, 0x77, 0x3d,
  0x00, 0x95, 0xe7, 0xbc, 0x37, 0x52, 0x38, 0x3e, 0xc8, 0x3c, 0xef, 0x3c,
  0x01, 0x65, 0x02, 0xbe, 0x5b, 0x83, 0x45, 0x3e, 0x14, 0xbd, 0x33, 0xbe,
  0xbc, 0x0b, 0x6e, 0xbd, 0x04, 0xda, 0x8d, 0xbd, 0xde, 0x54, 0xde, 0x3d,
  0x34, 0x8f, 0x07, 0xbe, 0x2c, 0xd3, 0x9a, 0xbd, 0xc8, 0xf4, 0xeb, 0xbc,
  0xe6, 0x4a, 0x93, 0x3d, 0xfa, 0x5b, 0xaf, 0x3d, 0x8c, 0x23, 0x1b, 0xbe,
  0x27, 0x9c, 0x4a, 0xbe, 0x80, 0xb5, 0x90, 0xbb, 0x22, 0x34, 0x8d, 0x3d,
  0x74, 0xc0, 0x43, 0x3d, 0x04, 0x6d, 0x3a, 0xbe, 0x70, 0xcc, 0x03, 0xbc,
  0xea, 0xf6, 0x01, 0xbe, 0xf0, 0x60, 0x52, 0xbc, 0xec, 0x95, 0x2c, 0xbe,
  0xb2, 0x94, 0x96, 0xbd, 0x60, 0x9d, 0xd8, 0xbc, 0xa0, 0x12, 0xe2, 0xbc,
  0xe9, 0x5b, 0x01, 0x3e, 0x8a, 0x79, 0x93, 0x3d, 0xc0, 0x56, 0x66, 0xbb,
  0x2b, 0x04, 0x27, 0xbe, 0xd0, 0x1f, 0x62, 0xbc, 0xcb, 0x17, 0x3b, 0xbe,
  0x00, 0xb0, 0x45, 0xbe, 0x8d, 0x16, 0x0a, 0x3e, 0xc0, 0xc5, 0x3f, 0xbc,
  0x06, 0x94, 0xb0, 0xbd, 0x50, 0x77, 0x6b, 0xbc, 0xc0, 0xb6, 0xf6, 0xbb,
  0x61, 0xbb, 0x13, 0xbe, 0x1c, 0x68, 0x49, 0x3d, 0x6c, 0xff, 0x35, 0x3d,
  0x3a, 0x83, 0xaf, 0xbd, 0x39, 0xca, 0x57, 0x3e, 0x8e, 0xd5, 0xfc, 0x3d,
  0x44, 0xc0, 0x6b, 0x3d, 0x6f, 0x97, 0x14, 0xbe, 0x84, 0xee, 0x44, 0x3d,
  0x26, 0xfa, 0x86, 0x3d, 0x3f, 0xe9, 0x46, 0x3e, 0x40, 0x28, 0x65, 0x3c,
  0x6c, 0xcb, 0x4b, 0xbd, 0x00, 0xbe, 0xa2, 0xbb, 0xa5, 0xb0, 0x03, 0x3e,
  0x00, 0xa0, 0xaf, 0xbd, 0x80, 0x04, 0xd9, 0x3a, 0xc6, 0x12, 0x3c, 0xbe,
  0x69, 0x24, 0x0a, 0xbe, 0x28, 0x9b, 0xaf, 0xbc, 0x01, 0xff, 0x0f, 0x3e,
  0xfa, 0x86, 0xc9, 0x3d, 0xba, 0xa7, 0x0a, 0xbe, 0xb2, 0xb2, 0xcd, 0xbd,
  0xb5, 0x3d, 0x4f, 0x3e, 0x9a, 0xea, 0xa7, 0x3d, 0x64, 0xcb, 0x2c, 0xbe,
  0x5e, 0x83, 0x8f, 0xbd, 0x76, 0x0f, 0xfe, 0x3d, 0xfc, 0x6b, 0x84, 0xbd,
  0x24, 0x5c, 0x03, 0xbd, 0x6c, 0xcd, 0x43, 0x3d, 0xfb, 0xb8, 0xb1, 0xbd,
  0x2e, 0xc3, 0x9a, 0xbd, 0x4e, 0x6a, 0x87, 0x3d, 0xff, 0x3a, 0x45, 0x3e,
  0x56, 0xc9, 0x83, 0xbd, 0x5c, 0x11, 0x25, 0xbe, 0x4f, 0x1f, 0x53, 0x3e,
  0xf0, 0x30, 0x7d, 0xbd, 0xf4, 0x70, 0x39, 0xbd, 0x47, 0x8d, 0x44, 0x3e,
  0xdf, 0x48, 0xdc, 0xbd, 0x52, 0xc9, 0xd8, 0x3d, 0x27, 0x98, 0x41, 0x3e,
  0xbb, 0xbb, 0xf8, 0xbd, 0xc4, 0x2b, 0x40, 0xbd, 0x37, 0xee, 0xcc, 0xbd,
  0xa0, 0x9a, 0xda, 0x3b, 0x79, 0xde, 0x05, 0x3e, 0x00, 0xf3, 0x08, 0x3b,
  0x19, 0x7c, 0x09, 0xbe, 0x40, 0xb0, 0x55, 0xbc, 0xf2, 0x0f, 0xd8, 0x3d,
  0x1c, 0xca, 0x62, 0x3d, 0xe5, 0x68, 0xf3, 0xbd, 0x76, 0xf9, 0x1c, 0xbe,
  0xcb, 0xde, 0x20, 0x3e, 0xc3, 0x15, 0xfa, 0xbd, 0xe0, 0x7c, 0xa5, 0xbd,
  0x73, 0xc9, 0x4c, 0x3e, 0x96, 0x3f, 0xd9, 0xbd, 0x72, 0x0d, 0xcd, 0x3d,
  0x81, 0xdb, 0x0c, 0x3e, 0x4e, 0xe0, 0x43, 0xbe, 0x72, 0xdc, 0xa6, 0xbd,
  0x3c, 0xde, 0x66, 0xbd, 0xea, 0xd7, 0xa6, 0x3d, 0xaf, 0x06, 0x45, 0x3e,
  0xbf, 0x1e, 0xe1, 0xbd, 0x4d, 0x1c, 0xf2, 0xbd, 0xae, 0xa9, 0xdb, 0xbd,
  0x91, 0x18, 0xe4, 0xbd, 0xbe, 0xa6, 0x16, 0xbe, 0xc4, 0x5b, 0x36, 0x3d,
  0x76, 0xa8, 0xe1, 0x3d, 0x0c, 0x01, 0x3e, 0xbe, 0x20, 0xde, 0xba, 0x3b,
  0x75, 0x74, 0x44, 0x3e, 0xa2, 0x46, 0xde, 0x3d, 0x79, 0xca, 0x1d, 0x3e,
  0xbb, 0x70, 0xdb, 0xbd, 0xb2, 0xdf, 0xc4, 0x3d, 0xcc, 0x27, 0x61, 0x3d,
  0x99, 0xd0, 0xe5, 0xbd, 0x20, 0x2b, 0x70, 0x3c, 0x00, 0x8f, 0xf1, 0xbb,
  0xf9, 0x7e, 0x24, 0x3e, 0xa0, 0xba, 0x84, 0xbd, 0xf2, 0x8c, 0xc8, 0x3d,
  0xa9, 0xa4, 0x18, 0xbe, 0xb9, 0xfd, 0x29, 0x3e, 0xe4, 0xdb, 0x64, 0x3d,
  0xaa, 0x32, 0xc4, 0x3d, 0x55, 0xa5, 0x22, 0x3e, 0x70, 0x36, 0x14, 0x3d,
  0x24, 0x95, 0x33, 0xbd, 0x2f, 0xb2, 0x11, 0x3e, 0x81, 0x62, 0x56, 0x3e,
  0x72, 0x3f, 0xbe, 0x3d, 0xbf, 0xd2, 0x39, 0x3e, 0xbc, 0x2c, 0x6c, 0x3d,
  0x55, 0x36, 0xe1, 0xbd, 0x96, 0x3a, 0xa6, 0x3d, 0x52, 0x03, 0xdd, 0x3d,
  0x6b, 0xe4, 0x00, 0x3e, 0x70, 0x64, 0x01, 0xbd, 0x40, 0xa5, 0xff, 0x3b,
  0x60, 0xcf, 0x95, 0xbc, 0x50, 0x1f, 0x17, 0x3d, 0x30, 0xfe, 0x9b, 0xbc,
  0xeb, 0xeb, 0x53, 0x3e, 0xea, 0x28, 0x4d, 0xbe, 0x4f, 0x27, 0xe9, 0xbd,
  0xf1, 0x3f, 0xd6, 0xbd, 0xe6, 0xc8, 0x8c, 0xbd, 0xb9, 0xce, 0x32, 0x3e,
  0xf8, 0x6f, 0x01, 0xbe, 0x70, 0x71, 0xa2, 0xbc, 0x8a, 0x4f, 0xc9, 0x3d,
  0x20, 0xe8, 0x25, 0xbc, 0xd8, 0xda, 0x97, 0x3c, 0x36, 0x0a, 0xe9, 0x3d,
  0xfe, 0x14, 0xf7, 0x3d, 0x70, 0x94, 0x63, 0xbd, 0xd1, 0x47, 0x03, 0x3e,
  0xaf, 0x63, 0x44, 0xbe, 0x91, 0xf6, 0xb3, 0xbd, 0x2b, 0xb4, 0x53, 0x3e,
  0x56, 0x3d, 0x4b, 0xbe, 0x71, 0x63, 0x0c, 0x3e, 0x00, 0x8d, 0x8c, 0xbd,
  0x84, 0xc3, 0x5e, 0xbd, 0xc0, 0xf2, 0x02, 0xbb, 0x1a, 0x28, 0x3f, 0xbe,
  0xec, 0x3f, 0x0b, 0xbe, 0x40, 0x9e, 0xb0, 0x3b, 0x70, 0xf1, 0x31, 0xbc,
  0xa1, 0xbb, 0x4f, 0x3e, 0x10, 0xf2, 0x74, 0xbd, 0x4d, 0xb6, 0x3b, 0x3e,
  0x81, 0x4c, 0x06, 0x3e, 0x2f, 0xad, 0x3f, 0x3e, 0xc3, 0x7e, 0x3f, 0x3e,
  0x8c, 0xd8, 0x81, 0xbd, 0xc0, 0xb1, 0x27, 0xbe, 0x46, 0xfa, 0x85, 0x3d,
  0x5c, 0x1b, 0x23, 0xbe, 0x82, 0xd4, 0x83, 0x3d, 0x40, 0xe6, 0x6b, 0x3b,
  0x85, 0xed, 0x0e, 0x3e, 0x57, 0xe2, 0x35, 0x3e, 0x71, 0xe6, 0x47, 0x3e,
  0xc9, 0x64, 0x51, 0xbe, 0xfa, 0xe9, 0x09, 0xbe, 0x78, 0xd3, 0x8a, 0xbd,
  0x00, 0x8f, 0x93, 0x3c, 0x00, 0x1c, 0x0a, 0x3b, 0x9f, 0x4d, 0x39, 0x3e,
  0x6c, 0x73, 0xb4, 0xbd, 0x40, 0xfa, 0x71, 0x3c, 0xf6, 0xe9, 0xb2, 0x3d,
  0xcc, 0xe0, 0x13, 0xbe, 0x1c, 0x6a, 0x17, 0xbe, 0x64, 0x5b, 0x3d, 0x3d,
  0x2e, 0xc9, 0x8b, 0x3d, 0xfe, 0xa0, 0xc5, 0xbd, 0xde, 0x15, 0xce, 0x3d,
  0x08, 0x8a, 0xf1, 0xbc, 0x20, 0xb1, 0x37, 0xbe, 0x1f, 0x21, 0xfa, 0xbd,
  0x26, 0xd4, 0x94, 0xbd, 0x35, 0x4f, 0x2c, 0x3e, 0x9c, 0xe5, 0x13, 0xbe,
  0x68, 0x10, 0x5b, 0xbd, 0xa2, 0x46, 0xe8, 0x3d, 0xaa, 0x89, 0xb4, 0x3d,
  0x3a, 0xca, 0x37, 0xbe, 0x56, 0x3e, 0xe1, 0x3d, 0xd5, 0xfb, 0x3a, 0xbe,
  0xe8, 0xb2, 0xde, 0xbc, 0x65, 0xb5, 0x1d, 0x3e, 0x60, 0x56, 0x94, 0x3b,
  0x94, 0xf2, 0x04, 0xbe, 0xf8, 0x00, 0x08, 0xbe, 0x38, 0x0b, 0x0a, 0xbe,
  0x40, 0x13, 0x47, 0xbb, 0x18, 0xa9, 0x6b, 0xbd, 0x92, 0x3e, 0xaa, 0x3d,
  0x12, 0xf3, 0xb8, 0xbd, 0xb9, 0x3d, 0x1f, 0x3e, 0x0a, 0xfa, 0xf5, 0x3d,
  0x78, 0x09, 0x3f, 0xbd, 0x18, 0xd1, 0x2d, 0xbe, 0xea, 0x5a, 0xc5, 0x3d,
  0x71, 0x91, 0x4b, 0x3e, 0xdf, 0x0f, 0xfb, 0xbd, 0xc0, 0x6c, 0x5b, 0xbd,
  0xe8, 0x84, 0xbf, 0x3c, 0x3b, 0x73, 0x44, 0xbe, 0xb0, 0x3f, 0x34, 0xbd,
  0xf1, 0xde, 0xec, 0xbd, 0x96, 0x7f, 0xc4, 0x3d, 0xa8, 0xac, 0xdd, 0x3c,
  0x5c, 0x87, 0x96, 0xbd, 0x08, 0x6b, 0x27, 0xbd, 0x5c, 0x9f, 0x46, 0x3d,
  0xf0, 0x40, 0x8f, 0x3c, 0x17, 0x49, 0x35, 0x3e, 0x46, 0xb0, 0x27, 0xbe,
  0x1b, 0x93, 0x3f, 0xbe, 0xac, 0x5d, 0x31, 0x3d, 0xfc, 0x5f, 0x60, 0xbd,
  0x70, 0xc1, 0xb2, 0xbc, 0x62, 0xfb, 0xff, 0xff, 0x04, 0x00, 0x00, 0x00,
  0x00, 0x04, 0x00, 0x00, 0x00, 0x00, 0x00, 0x00, 0x00, 0x00, 0x00, 0x00,
  0x00, 0x00, 0x00, 0x00, 0x00, 0x00, 0x00, 0x00, 0x00, 0x00, 0x00, 0x00,
  0x00, 0x00, 0x00, 0x00, 0x00, 0x00, 0x00, 0x00, 0x00, 0x00, 0x00, 0x00,
  0x00, 0x00, 0x00, 0x00, 0x00, 0x00, 0x00, 0x00, 0x00, 0x00, 0x00, 0x00,
  0x00, 0x00, 0x00, 0x00, 0x00, 0x00, 0x00, 0x00, 0x00, 0x00, 0x00, 0x00,
  0x00, 0x00, 0x00, 0x00, 0x00, 0x00, 0x00, 0x00, 0x00, 0x00, 0x00, 0x00,
  0x00, 0x00, 0x00, 0x00, 0x00, 0x00, 0x00, 0x00, 0x00, 0x00, 0x00, 0x00,
  0x00, 0x00, 0x00, 0x00, 0x00, 0x00, 0x00, 0x00, 0x00, 0x00, 0x00, 0x00,
  0x00, 0x00, 0x00, 0x00, 0x00, 0x00, 0x00, 0x00, 0x00, 0x00, 0x00, 0x00,
  0x00, 0x00, 0x00, 0x00, 0x00, 0x00, 0x00, 0x00, 0x00, 0x00, 0x00, 0x00,
  0x00, 0x00, 0x00, 0x00, 0x00, 0x00, 0x00, 0x00, 0x00, 0x00, 0x00, 0x00,
  0x00, 0x00, 0x00, 0x00, 0x00, 0x00, 0x00, 0x00, 0x00, 0x00, 0x00, 0x00,
  0x00, 0x00, 0x00, 0x00, 0x00, 0x00, 0x00, 0x00, 0x00, 0x00, 0x00, 0x00,
  0x00, 0x00, 0x00, 0x00, 0x00, 0x00, 0x00, 0x00, 0x00, 0x00, 0x00, 0x00,
  0x00, 0x00, 0x00, 0x00, 0x00, 0x00, 0x00, 0x00, 0x00, 0x00, 0x00, 0x00,
  0x00, 0x00, 0x00, 0x00, 0x00, 0x00, 0x00, 0x00, 0x00, 0x00, 0x00, 0x00,
  0x00, 0x00, 0x00, 0x00, 0x00, 0x00, 0x00, 0x00, 0x00, 0x00, 0x00, 0x00,
  0x00, 0x00, 0x00, 0x00, 0x00, 0x00, 0x00, 0x00, 0x00, 0x00, 0x00, 0x00,
  0x00, 0x00, 0x00, 0x00, 0x00, 0x00, 0x00, 0x00, 0x00, 0x00, 0x00, 0x00,
  0x00, 0x00, 0x00, 0x00, 0x00, 0x00, 0x00, 0x00, 0x00, 0x00, 0x00, 0x00,
  0x00, 0x00, 0x00, 0x00, 0x00, 0x00, 0x00, 0x00, 0x00, 0x00, 0x00, 0x00,
  0x00, 0x00, 0x00, 0x00, 0x00, 0x00, 0x00, 0x00, 0x00, 0x00, 0x00, 0x00,
  0x00, 0x00, 0x00, 0x00, 0x00, 0x00, 0x00, 0x00, 0x00, 0x00, 0x00, 0x00,
  0x00, 0x00, 0x00, 0x00, 0x00, 0x00, 0x00, 0x00, 0x00, 0x00, 0x00, 0x00,
  0x00, 0x00, 0x00, 0x00, 0x00, 0x00, 0x00, 0x00, 0x00, 0x00, 0x00, 0x00,
  0x00, 0x00, 0x00, 0x00, 0x00, 0x00, 0x00, 0x00, 0x00, 0x00, 0x00, 0x00,
  0x00, 0x00, 0x00, 0x00, 0x00, 0x00, 0x00, 0x00, 0x00, 0x00, 0x00, 0x00,
  0x00, 0x00, 0x00, 0x00, 0x00, 0x00, 0x00, 0x00, 0x00, 0x00, 0x00, 0x00,
  0x00, 0x00, 0x00, 0x00, 0x00, 0x00, 0x00, 0x00, 0x00, 0x00, 0x00, 0x00,
  0x00, 0x00, 0x00, 0x00, 0x00, 0x00, 0x00, 0x00, 0x00, 0x00, 0x00, 0x00,
  0x00, 0x00, 0x00, 0x00, 0x00, 0x00, 0x00, 0x00, 0x00, 0x00, 0x00, 0x00,
  0x00, 0x00, 0x00, 0x00, 0x00, 0x00, 0x00, 0x00, 0x00, 0x00, 0x00, 0x00,
  0x00, 0x00, 0x00, 0x00, 0x00, 0x00, 0x00, 0x00, 0x00, 0x00, 0x00, 0x00,
  0x00, 0x00, 0x00, 0x00, 0x00, 0x00, 0x00, 0x00, 0x00, 0x00, 0x00, 0x00,
  0x00, 0x00, 0x00, 0x00, 0x00, 0x00, 0x00, 0x00, 0x00, 0x00, 0x00, 0x00,
  0x00, 0x00, 0x00, 0x00, 0x00, 0x00, 0x00, 0x00, 0x00, 0x00, 0x00, 0x00,
  0x00, 0x00, 0x00, 0x00, 0x00, 0x00, 0x00, 0x00, 0x00, 0x00, 0x00, 0x00,
  0x00, 0x00, 0x00, 0x00, 0x00, 0x00, 0x00, 0x00, 0x00, 0x00, 0x00, 0x00,
  0x00, 0x00, 0x00, 0x00, 0x00, 0x00, 0x00, 0x00, 0x00, 0x00, 0x00, 0x00,
  0x00, 0x00, 0x00, 0x00, 0x00, 0x00, 0x00, 0x00, 0x00, 0x00, 0x00, 0x00,
  0x00, 0x00, 0x00, 0x00, 0x00, 0x00, 0x00, 0x00, 0x00, 0x00, 0x00, 0x00,
  0x00, 0x00, 0x00, 0x00, 0x00, 0x00, 0x00, 0x00, 0x00, 0x00, 0x00, 0x00,
  0x00, 0x00, 0x00, 0x00, 0x00, 0x00, 0x00, 0x00, 0x00, 0x00, 0x00, 0x00,
  0x00, 0x00, 0x00, 0x00, 0x00, 0x00, 0x00, 0x00, 0x00, 0x00, 0x00, 0x00,
  0x00, 0x00, 0x00, 0x00, 0x00, 0x00, 0x00, 0x00, 0x00, 0x00, 0x00, 0x00,
  0x00, 0x00, 0x00, 0x00, 0x00, 0x00, 0x00, 0x00, 0x00, 0x00, 0x00, 0x00,
  0x00, 0x00, 0x00, 0x00, 0x00, 0x00, 0x00, 0x00, 0x00, 0x00, 0x00, 0x00,
  0x00, 0x00, 0x00, 0x00, 0x00, 0x00, 0x00, 0x00, 0x00, 0x00, 0x00, 0x00,
  0x00, 0x00, 0x00, 0x00, 0x00, 0x00, 0x00, 0x00, 0x00, 0x00, 0x00, 0x00,
  0x00, 0x00, 0x00, 0x00, 0x00, 0x00, 0x00, 0x00, 0x00, 0x00, 0x00, 0x00,
  0x00, 0x00, 0x00, 0x00, 0x00, 0x00, 0x00, 0x00, 0x00, 0x00, 0x00, 0x00,
  0x00, 0x00, 0x00, 0x00, 0x00, 0x00, 0x00, 0x00, 0x00, 0x00, 0x00, 0x00,
  0x00, 0x00, 0x00, 0x00, 0x00, 0x00, 0x00, 0x00, 0x00, 0x00, 0x00, 0x00,
  0x00, 0x00, 0x00, 0x00, 0x00, 0x00, 0x00, 0x00, 0x00, 0x00, 0x00, 0x00,
  0x00, 0x00, 0x00, 0x00, 0x00, 0x00, 0x00, 0x00, 0x00, 0x00, 0x00, 0x00,
  0x00, 0x00, 0x00, 0x00, 0x00, 0x00, 0x00, 0x00, 0x00, 0x00, 0x00, 0x00,
  0x00, 0x00, 0x00, 0x00, 0x00, 0x00, 0x00, 0x00, 0x00, 0x00, 0x00, 0x00,
  0x00, 0x00, 0x00, 0x00, 0x00, 0x00, 0x00, 0x00, 0x00, 0x00, 0x00, 0x00,
  0x00, 0x00, 0x00, 0x00, 0x00, 0x00, 0x00, 0x00, 0x00, 0x00, 0x00, 0x00,
  0x00, 0x00, 0x00, 0x00, 0x00, 0x00, 0x00, 0x00, 0x00, 0x00, 0x00, 0x00,
  0x00, 0x00, 0x00, 0x00, 0x00, 0x00, 0x00, 0x00, 0x00, 0x00, 0x00, 0x00,
  0x00, 0x00, 0x00, 0x00, 0x00, 0x00, 0x00, 0x00, 0x00, 0x00, 0x00, 0x00,
  0x00, 0x00, 0x00, 0x00, 0x00, 0x00, 0x00, 0x00, 0x00, 0x00, 0x00, 0x00,
  0x00, 0x00, 0x00, 0x00, 0x00, 0x00, 0x00, 0x00, 0x00, 0x00, 0x00, 0x00,
  0x00, 0x00, 0x00, 0x00, 0x00, 0x00, 0x00, 0x00, 0x00, 0x00, 0x00, 0x00,
  0x00, 0x00, 0x00, 0x00, 0x00, 0x00, 0x00, 0x00, 0x00, 0x00, 0x00, 0x00,
  0x00, 0x00, 0x00, 0x00, 0x00, 0x00, 0x00, 0x00, 0x00, 0x00, 0x00, 0x00,
  0x00, 0x00, 0x00, 0x00, 0x00, 0x00, 0x00, 0x00, 0x00, 0x00, 0x00, 0x00,
  0x00, 0x00, 0x00, 0x00, 0x00, 0x00, 0x00, 0x00, 0x00, 0x00, 0x00, 0x00,
  0x00, 0x00, 0x00, 0x00, 0x00, 0x00, 0x00, 0x00, 0x00, 0x00, 0x00, 0x00,
  0x00, 0x00, 0x00, 0x00, 0x00, 0x00, 0x00, 0x00, 0x00, 0x00, 0x00, 0x00,
  0x00, 0x00, 0x00, 0x00, 0x00, 0x00, 0x00, 0x00, 0x00, 0x00, 0x00, 0x00,
  0x00, 0x00, 0x00, 0x00, 0x00, 0x00, 0x00, 0x00, 0x00, 0x00, 0x00, 0x00,
  0x00, 0x00, 0x00, 0x00, 0x00, 0x00, 0x00, 0x00, 0x00, 0x00, 0x00, 0x00,
  0x00, 0x00, 0x00, 0x00, 0x00, 0x00, 0x00, 0x00, 0x00, 0x00, 0x00, 0x00,
  0x00, 0x00, 0x00, 0x00, 0x00, 0x00, 0x00, 0x00, 0x00, 0x00, 0x00, 0x00,
  0x00, 0x00, 0x00, 0x00, 0x00, 0x00, 0x00, 0x00, 0x00, 0x00, 0x00, 0x00,
  0x00, 0x00, 0x00, 0x00, 0x00, 0x00, 0x00, 0x00, 0x00, 0x00, 0x00, 0x00,
  0x00, 0x00, 0x00, 0x00, 0x00, 0x00, 0x00, 0x00, 0x00, 0x00, 0x00, 0x00,
  0x00, 0x00, 0x00, 0x00, 0x00, 0x00, 0x00, 0x00, 0x00, 0x00, 0x00, 0x00,
  0x00, 0x00, 0x00, 0x00, 0x00, 0x00, 0x00, 0x00, 0x00, 0x00, 0x00, 0x00,
  0x00, 0x00, 0x00, 0x00, 0x00, 0x00, 0x00, 0x00, 0x00, 0x00, 0x00, 0x00,
  0x00, 0x00, 0x00, 0x00, 0x00, 0x00, 0x00, 0x00, 0x00, 0x00, 0x00, 0x00,
  0x00, 0x00, 0x00, 0x00, 0x00, 0x00, 0x00, 0x00, 0x00, 0x00, 0x00, 0x00,
  0x00, 0x00, 0x00, 0x00, 0x00, 0x00, 0x00, 0x00, 0x00, 0x00, 0x00, 0x00,
  0x00, 0x00, 0x00, 0x00, 0x00, 0x00, 0x00, 0x00, 0xd0, 0xfc, 0xff, 0xff,
  0xd4, 0xfc, 0xff, 0xff, 0x0f, 0x00, 0x00, 0x00, 0x4d, 0x4c, 0x49, 0x52,
  0x20, 0x43, 0x6f, 0x6e, 0x76, 0x65, 0x72, 0x74, 0x65, 0x64, 0x2e, 0x00,
  0x01, 0x00, 0x00, 0x00, 0x14, 0x00, 0x00, 0x00, 0x00, 0x00, 0x0e, 0x00,
  0x18, 0x00, 0x14, 0x00, 0x10, 0x00, 0x0c, 0x00, 0x08, 0x00, 0x04, 0x00,
  0x0e, 0x00, 0x00, 0x00, 0x14, 0x00, 0x00, 0x00, 0x1c, 0x00, 0x00, 0x00,
  0xec, 0x00, 0x00, 0x00, 0xf0, 0x00, 0x00, 0x00, 0xf4, 0x00, 0x00, 0x00,
  0x04, 0x00, 0x00, 0x00, 0x6d, 0x61, 0x69, 0x6e, 0x00, 0x00, 0x00, 0x00,
  0x03, 0x00, 0x00, 0x00, 0x94, 0x00, 0x00, 0x00, 0x50, 0x00, 0x00, 0x00,
  0x14, 0x00, 0x00, 0x00, 0x00, 0x00, 0x0e, 0x00, 0x1a, 0x00, 0x14, 0x00,
  0x10, 0x00, 0x0c, 0x00, 0x0b, 0x00, 0x04, 0x00, 0x0e, 0x00, 0x00, 0x00,
  0x1c, 0x00, 0x00, 0x00, 0x00, 0x00, 0x00, 0x09, 0x1c, 0x00, 0x00, 0x00,
  0x20, 0x00, 0x00, 0x00, 0x01, 0x00, 0x00, 0x00, 0x00, 0x00, 0x06, 0x00,
  0x08, 0x00, 0x04, 0x00, 0x06, 0x00, 0x00, 0x00, 0x00, 0x00, 0x80, 0x3f,
  0x01, 0x00, 0x00, 0x00, 0x05, 0x00, 0x00, 0x00, 0x01, 0x00, 0x00, 0x00,
  0x04, 0x00, 0x00, 0x00, 0xce, 0xff, 0xff, 0xff, 0x10, 0x00, 0x00, 0x00,
  0x00, 0x00, 0x00, 0x08, 0x0c, 0x00, 0x00, 0x00, 0x10, 0x00, 0x00, 0x00,
  0x94, 0xfd, 0xff, 0xff, 0x01, 0x00, 0x00, 0x00, 0x04, 0x00, 0x00, 0x00,
  0x03, 0x00, 0x00, 0x00, 0x03, 0x00, 0x00, 0x00, 0x01, 0x00, 0x00, 0x00,
  0xff, 0xff, 0xff, 0xff, 0x00, 0x00, 0x0e, 0x00, 0x16, 0x00, 0x00, 0x00,
  0x10, 0x00, 0x0c, 0x00, 0x0b, 0x00, 0x04, 0x00, 0x0e, 0x00, 0x00, 0x00,
  0x18, 0x00, 0x00, 0x00, 0x00, 0x00, 0x00, 0x08, 0x18, 0x00, 0x00, 0x00,
  0x1c, 0x00, 0x00, 0x00, 0x00, 0x00, 0x06, 0x00, 0x08, 0x00, 0x07, 0x00,
  0x06, 0x00, 0x00, 0x00, 0x00, 0x00, 0x00, 0x01, 0x01, 0x00, 0x00, 0x00,
  0x03, 0x00, 0x00, 0x00, 0x03, 0x00, 0x00, 0x00, 0x00, 0x00, 0x00, 0x00,
  0x02, 0x00, 0x00, 0x00, 0xff, 0xff, 0xff, 0xff, 0x01, 0x00, 0x00, 0x00,
  0x05, 0x00, 0x00, 0x00, 0x01, 0x00, 0x00, 0x00, 0x00, 0x00, 0x00, 0x00,
  0x06, 0x00, 0x00, 0x00, 0xc8, 0x01, 0x00, 0x00, 0x70, 0x01, 0x00, 0x00,
  0x18, 0x01, 0x00, 0x00, 0xb0, 0x00, 0x00, 0x00, 0x50, 0x00, 0x00, 0x00,
  0x04, 0x00, 0x00, 0x00, 0x66, 0xfe, 0xff, 0xff, 0x00, 0x00, 0x00, 0x01,
  0x14, 0x00, 0x00, 0x00, 0x1c, 0x00, 0x00, 0x00, 0x1c, 0x00, 0x00, 0x00,
  0x06, 0x00, 0x00, 0x00, 0x24, 0x00, 0x00, 0x00, 0x02, 0x00, 0x00, 0x00,
  0xff, 0xff, 0xff, 0xff, 0x02, 0x00, 0x00, 0x00, 0x50, 0xfe, 0xff, 0xff,
  0x08, 0x00, 0x00, 0x00, 0x49, 0x64, 0x65, 0x6e, 0x74, 0x69, 0x74, 0x79,
  0x00, 0x00, 0x00, 0x00, 0x02, 0x00, 0x00, 0x00, 0x01, 0x00, 0x00, 0x00,
  0x02, 0x00, 0x00, 0x00, 0xae, 0xfe, 0xff, 0xff, 0x00, 0x00, 0x00, 0x01,
  0x14, 0x00, 0x00, 0x00, 0x1c, 0x00, 0x00, 0x00, 0x1c, 0x00, 0x00, 0x00,
  0x05, 0x00, 0x00, 0x00, 0x38, 0x00, 0x00, 0x00, 0x02, 0x00, 0x00, 0x00,
  0xff, 0xff, 0xff, 0xff, 0x02, 0x00, 0x00, 0x00, 0x98, 0xfe, 0xff, 0xff,
  0x1e, 0x00, 0x00, 0x00, 0x64, 0x65, 0x6e, 0x73, 0x65, 0x5f, 0x31, 0x5f,
  0x32, 0x2f, 0x4d, 0x61, 0x74, 0x4d, 0x75, 0x6c, 0x3b, 0x64, 0x65, 0x6e,
  0x73, 0x65, 0x5f, 0x31, 0x5f, 0x32, 0x2f, 0x41, 0x64, 0x64, 0x00, 0x00,
  0x02, 0x00, 0x00, 0x00, 0x01, 0x00, 0x00, 0x00, 0x02, 0x00, 0x00, 0x00,
  0x0a, 0xff, 0xff, 0xff, 0x00, 0x00, 0x00, 0x01, 0x14, 0x00, 0x00, 0x00,
  0x1c, 0x00, 0x00, 0x00, 0x1c, 0x00, 0x00, 0x00, 0x04, 0x00, 0x00, 0x00,
  0x40, 0x00, 0x00, 0x00, 0x02, 0x00, 0x00, 0x00, 0xff, 0xff, 0xff, 0xff,
  0x80, 0x00, 0x00, 0x00, 0xf4, 0xfe, 0xff, 0xff, 0x27, 0x00, 0x00, 0x00,
  0x64, 0x65, 0x6e, 0x73, 0x65, 0x5f, 0x31, 0x2f, 0x4d, 0x61, 0x74, 0x4d,
  0x75, 0x6c, 0x3b, 0x64, 0x65, 0x6e, 0x73, 0x65, 0x5f, 0x31, 0x2f, 0x52,
  0x65, 0x6c, 0x75, 0x3b, 0x64, 0x65, 0x6e, 0x73, 0x65, 0x5f, 0x31, 0x2f,
  0x41, 0x64, 0x64, 0x00, 0x02, 0x00, 0x00, 0x00, 0x01, 0x00, 0x00, 0x00,
  0x80, 0x00, 0x00, 0x00, 0xc2, 0xff, 0xff, 0xff, 0x00, 0x00, 0x00, 0x01,
  0x10, 0x00, 0x00, 0x00, 0x10, 0x00, 0x00, 0x00, 0x03, 0x00, 0x00, 0x00,
  0x1c, 0x00, 0x00, 0x00, 0x48, 0xff, 0xff, 0xff, 0x0e, 0x00, 0x00, 0x00,
  0x64, 0x65, 0x6e, 0x73, 0x65, 0x5f, 0x31, 0x2f, 0x4d, 0x61, 0x74, 0x4d,
  0x75, 0x6c, 0x00, 0x00, 0x02, 0x00, 0x00, 0x00, 0x80, 0x00, 0x00, 0x00,
  0x07, 0x00, 0x00, 0x00, 0x00, 0x00, 0x16, 0x00, 0x18, 0x00, 0x14, 0x00,
  0x00, 0x00, 0x10, 0x00, 0x0c, 0x00, 0x08, 0x00, 0x00, 0x00, 0x00, 0x00,
  0x00, 0x00, 0x07, 0x00, 0x16, 0x00, 0x00, 0x00, 0x00, 0x00, 0x00, 0x01,
  0x10, 0x00, 0x00, 0x00, 0x10, 0x00, 0x00, 0x00, 0x02, 0x00, 0x00, 0x00,
  0x1c, 0x00, 0x00, 0x00, 0x9c, 0xff, 0xff, 0xff, 0x0e, 0x00, 0x00, 0x00,
  0x61, 0x72, 0x69, 0x74, 0x68, 0x2e, 0x63, 0x6f, 0x6e, 0x73, 0x74, 0x61,
  0x6e, 0x74, 0x00, 0x00, 0x02, 0x00, 0x00, 0x00, 0x02, 0x00, 0x00, 0x00,
  0x80, 0x00, 0x00, 0x00, 0x00, 0x00, 0x16, 0x00, 0x1c, 0x00, 0x18, 0x00,
  0x00, 0x00, 0x14, 0x00, 0x10, 0x00, 0x0c, 0x00, 0x00, 0x00, 0x00, 0x00,
  0x08, 0x00, 0x07, 0x00, 0x16, 0x00, 0x00, 0x00, 0x00, 0x00, 0x00, 0x01,
  0x14, 0x00, 0x00, 0x00, 0x20, 0x00, 0x00, 0x00, 0x20, 0x00, 0x00, 0x00,
  0x01, 0x00, 0x00, 0x00, 0x20, 0x00, 0x00, 0x00, 0x02, 0x00, 0x00, 0x00,
  0xff, 0xff, 0xff, 0xff, 0x07, 0x00, 0x00, 0x00, 0x04, 0x00, 0x04, 0x00,
  0x04, 0x00, 0x00, 0x00, 0x01, 0x00, 0x00, 0x00, 0x78, 0x00, 0x00, 0x00,
  0x02, 0x00, 0x00, 0x00, 0x01, 0x00, 0x00, 0x00, 0x07, 0x00, 0x00, 0x00,
  0x02, 0x00, 0x00, 0x00, 0x20, 0x00, 0x00, 0x00, 0x04, 0x00, 0x00, 0x00,
  0xf4, 0xff, 0xff, 0xff, 0x19, 0x00, 0x00, 0x00, 0x00, 0x00, 0x00, 0x19,
  0x0c, 0x00, 0x0c, 0x00, 0x0b, 0x00, 0x00, 0x00, 0x00, 0x00, 0x04, 0x00,
  0x0c, 0x00, 0x00, 0x00, 0x09, 0x00, 0x00, 0x00, 0x00, 0x00, 0x00, 0x09
};
unsigned int g_model_len = 5868;


