
/*
#include "policy_net_model.h"
unsigned char g_model[] = {
  0x1c, 0x00, 0x00, 0x00, 0x54, 0x46, 0x4c, 0x33, 0x14, 0x00, 0x20, 0x00,
  0x1c, 0x00, 0x18, 0x00, 0x14, 0x00, 0x10, 0x00, 0x0c, 0x00, 0x00, 0x00,
  0x08, 0x00, 0x04, 0x00, 0x14, 0x00, 0x00, 0x00, 0x1c, 0x00, 0x00, 0x00,
  0x1c, 0x00, 0x00, 0x00, 0x74, 0x00, 0x00, 0x00, 0x4c, 0x13, 0x00, 0x00,
  0x5c, 0x13, 0x00, 0x00, 0x88, 0x16, 0x00, 0x00, 0x03, 0x00, 0x00, 0x00,
  0x00, 0x00, 0x00, 0x00, 0x02, 0x00, 0x00, 0x00, 0x34, 0x00, 0x00, 0x00,
  0x04, 0x00, 0x00, 0x00, 0xdc, 0xff, 0xff, 0xff, 0x08, 0x00, 0x00, 0x00,
  0x04, 0x00, 0x00, 0x00, 0x13, 0x00, 0x00, 0x00, 0x43, 0x4f, 0x4e, 0x56,
  0x45, 0x52, 0x53, 0x49, 0x4f, 0x4e, 0x5f, 0x4d, 0x45, 0x54, 0x41, 0x44,
  0x41, 0x54, 0x41, 0x00, 0x08, 0x00, 0x0c, 0x00, 0x08, 0x00, 0x04, 0x00,
  0x08, 0x00, 0x00, 0x00, 0x07, 0x00, 0x00, 0x00, 0x04, 0x00, 0x00, 0x00,
  0x13, 0x00, 0x00, 0x00, 0x6d, 0x69, 0x6e, 0x5f, 0x72, 0x75, 0x6e, 0x74,
  0x69, 0x6d, 0x65, 0x5f, 0x76, 0x65, 0x72, 0x73, 0x69, 0x6f, 0x6e, 0x00,
  0x09, 0x00, 0x00, 0x00, 0xd4, 0x12, 0x00, 0x00, 0xcc, 0x12, 0x00, 0x00,
  0xbc, 0x0e, 0x00, 0x00, 0xac, 0x00, 0x00, 0x00, 0xa4, 0x00, 0x00, 0x00,
  0x9c, 0x00, 0x00, 0x00, 0x94, 0x00, 0x00, 0x00, 0x74, 0x00, 0x00, 0x00,
  0x04, 0x00, 0x00, 0x00, 0xc2, 0xec, 0xff, 0xff, 0x04, 0x00, 0x00, 0x00,
  0x60, 0x00, 0x00, 0x00, 0x10, 0x00, 0x00, 0x00, 0x00, 0x00, 0x00, 0x00,
  0x08, 0x00, 0x0e, 0x00, 0x08, 0x00, 0x04, 0x00, 0x08, 0x00, 0x00, 0x00,
  0x10, 0x00, 0x00, 0x00, 0x24, 0x00, 0x00, 0x00, 0x00, 0x00, 0x06, 0x00,
  0x08, 0x00, 0x04, 0x00, 0x06, 0x00, 0x00, 0x00, 0x04, 0x00, 0x00, 0x00,
  0x00, 0x00, 0x00, 0x00, 0x0c, 0x00, 0x18, 0x00, 0x14, 0x00, 0x10, 0x00,
  0x0c, 0x00, 0x04, 0x00, 0x0c, 0x00, 0x00, 0x00, 0x81, 0xa9, 0xc5, 0xc5,
  0x1d, 0x39, 0xbf, 0x36, 0x03, 0x00, 0x00, 0x00, 0x02, 0x00, 0x00, 0x00,
  0x04, 0x00, 0x00, 0x00, 0x06, 0x00, 0x00, 0x00, 0x32, 0x2e, 0x31, 0x37,
  0x2e, 0x30, 0x00, 0x00, 0x2e, 0xed, 0xff, 0xff, 0x04, 0x00, 0x00, 0x00,
  0x10, 0x00, 0x00, 0x00, 0x31, 0x2e, 0x35, 0x2e, 0x30, 0x00, 0x00, 0x00,
  0x00, 0x00, 0x00, 0x00, 0x00, 0x00, 0x00, 0x00, 0xac, 0xea, 0xff, 0xff,
  0xb0, 0xea, 0xff, 0xff, 0xb4, 0xea, 0xff, 0xff, 0x56, 0xed, 0xff, 0xff,
  0x04, 0x00, 0x00, 0x00, 0x00, 0x0e, 0x00, 0x00, 0x42, 0x4b, 0x9b, 0x3d,
  0xe4, 0x44, 0x5d, 0x3d, 0x7f, 0x0d, 0x2b, 0x3e, 0x92, 0x4d, 0xca, 0x3d,
  0xfb, 0xa0, 0x3e, 0xbe, 0x9e, 0xd2, 0xf5, 0xbd, 0xee, 0x8b, 0x9b, 0xbd,
  0x50, 0x76, 0x18, 0x3c, 0x85, 0xdb, 0x0f, 0x3e, 0x9c, 0xf9, 0x2f, 0xbe,
  0x20, 0xa3, 0x03, 0x3d, 0x20, 0x40, 0xd8, 0x3b, 0xa2, 0x21, 0xbb, 0x3d,
  0x41, 0xd0, 0x3f, 0x3e, 0xa4, 0x8e, 0x02, 0x3d, 0xee, 0xca, 0x10, 0xbe,
  0xf4, 0x03, 0x37, 0xbe, 0x98, 0x3b, 0x54, 0xbe, 0x50, 0xfb, 0xbd, 0xbc,
  0x39, 0xa1, 0x36, 0xbe, 0x40, 0xfa, 0x7b, 0x3c, 0x16, 0x4b, 0xfb, 0x3d,
  0x18, 0xf8, 0xef, 0xbc, 0x9a, 0xd6, 0xe7, 0x3d, 0xf1, 0x7d, 0x28, 0x3e,
  0xb0, 0x42, 0xc1, 0xbc, 0xf7, 0x76, 0xf3, 0xbd, 0xb4, 0x60, 0x1c, 0xbd,
  0x90, 0x7e, 0xa9, 0x3c, 0x3c, 0x05, 0x54, 0xbd, 0xe0, 0x93, 0x51, 0xbe,
  0x20, 0x99, 0xe3, 0xbb, 0x40, 0x29, 0x5a, 0x3b, 0x50, 0x3e, 0xcb, 0x3c,
  0xe2, 0xc7, 0x34, 0xbe, 0x47, 0x47, 0x56, 0x3e, 0xde, 0x69, 0xdc, 0x3d,
  0xaa, 0xc0, 0xcb, 0x3d, 0x00, 0xd3, 0x83, 0xbc, 0x66, 0xd1, 0x31, 0xbe,
  0x13, 0xbb, 0x1f, 0x3e, 0xe3, 0x1b, 0x43, 0xbe, 0x07, 0xe4, 0x46, 0x3e,
  0x3f, 0xc2, 0x30, 0x3e, 0xbc, 0x6a, 0x6c, 0xbd, 0x03, 0xb2, 0xee, 0xbd,
  0xe7, 0x1b, 0x43, 0x3e, 0x5c, 0xfb, 0x50, 0x3d, 0x00, 0xd1, 0x46, 0xba,
  0x8f, 0xbe, 0xc7, 0xbd, 0x76, 0x68, 0xc7, 0x3d, 0xde, 0xb5, 0xc1, 0x3d,
  0x5a, 0x08, 0xfc, 0x3d, 0x04, 0xe0, 0x03, 0xbe, 0xa4, 0x63, 0x4a, 0x3d,
  0x15, 0x20, 0x17, 0x3e, 0x94, 0xcd, 0xcb, 0xbd, 0x08, 0x47, 0x79, 0xbd,
  0xd8, 0x5f, 0x93, 0xbd, 0xa6, 0x28, 0xf1, 0x3d, 0xf7, 0x90, 0xee, 0xbd,
  0x48, 0x73, 0xb4, 0x3c, 0xcc, 0x29, 0x1e, 0x3d, 0x59, 0xd3, 0x2e, 0x3e,
  0xbd, 0x59, 0x56, 0x3e, 0xc9, 0x28, 0x0b, 0xbe, 0x46, 0xe2, 0xa4, 0x3d,
  0x5d, 0x53, 0x35, 0xbe, 0x2e, 0x31, 0xde, 0x3d, 0xbe, 0xe8, 0xd7, 0xbd,
  0x13, 0xec, 0x3b, 0xbe, 0xb0, 0xe6, 0x54, 0xbc, 0x49, 0x4d, 0x38, 0x3e,
  0xd2, 0x1b, 0xc2, 0xbd, 0x75, 0x5e, 0x37, 0x3e, 0x8b, 0x04, 0x41, 0x3e,
  0x60, 0x3a, 0xaf, 0xbc, 0x80, 0x91, 0x82, 0x3a, 0x26, 0xef, 0xaa, 0x3d,
  0xa0, 0xb6, 0x64, 0xbd, 0xf8, 0xf4, 0xe0, 0x3c, 0x0b, 0x41, 0xfb, 0xbd,
  0x1e, 0xc5, 0x8b, 0x3d, 0xd0, 0x89, 0x43, 0xbc, 0x20, 0x2e, 0xa3, 0xbb,
  0x3d, 0xec, 0xc6, 0xbd, 0x9e, 0x5d, 0x30, 0xbe, 0x88, 0xdd, 0x06, 0x3d,
  0x50, 0x63, 0x48, 0xbc, 0xef, 0x0b, 0xf8, 0xbd, 0x84, 0x8d, 0x3e, 0x3d,
  0x37, 0x1f, 0x50, 0x3e, 0x16, 0x2e, 0xeb, 0x3d, 0x11, 0x2d, 0x21, 0x3e,
  0xf0, 0x46, 0x0f, 0xbd, 0x00, 0xe1, 0xfe, 0xba, 0xb1, 0x32, 0xc6, 0xbd,
  0x08, 0x38, 0x35, 0xbd, 0xc1, 0x1e, 0xb0, 0xbd, 0xd8, 0x68, 0x1e, 0xbd,
  0xb0, 0x12, 0xe1, 0x3c, 0xa0, 0x74, 0x0e, 0xbc, 0x50, 0xb9, 0x78, 0xbd,
  0xa0, 0xd0, 0x41, 0xbe, 0x1c, 0x80, 0x52, 0x3d, 0xec, 0xd7, 0x3b, 0x3d,
  0xf1, 0x1f, 0xe8, 0xbd, 0x7e, 0x84, 0x0a, 0xbe, 0xa9, 0x4d, 0x54, 0xbe,
  0x90, 0xe6, 0x4d, 0xbc, 0x7e, 0xb5, 0xe2, 0xbd, 0x00, 0x9a, 0x5e, 0xbb,
  0x18, 0x06, 0x3f, 0xbd, 0xc0, 0x42, 0xbd, 0xbb, 0x00, 0x04, 0x2d, 0x3a,
  0x20, 0xd5, 0xe1, 0x3b, 0x56, 0x85, 0xc4, 0x3d, 0xc6, 0x70, 0x90, 0x3d,
  0xd7, 0x85, 0x16, 0x3e, 0x54, 0xe9, 0x27, 0xbe, 0x28, 0xf2, 0xd6, 0xbc,
  0x7e, 0xb3, 0xe0, 0xbd, 0xc0, 0x04, 0x04, 0xbb, 0x34, 0x37, 0x8a, 0xbd,
  0x27, 0x8e, 0x1e, 0x3e, 0xca, 0x56, 0x92, 0xbd, 0x61, 0x55, 0x01, 0x3e,
  0xc6, 0x63, 0x46, 0xbe, 0xe8, 0x23, 0x92, 0xbd, 0x36, 0xf0, 0xe2, 0x3d,
  0x40, 0x63, 0xbc, 0x3c, 0xe4, 0xf9, 0x67, 0x3d, 0x04, 0x2f, 0x7f, 0x3d,
  0x2f, 0x50, 0x43, 0xbe, 0xbd, 0xd2, 0x34, 0x3e, 0xf4, 0xe6, 0x8d, 0xbd,
  0x16, 0x42, 0x1e, 0xbe, 0x4e, 0xc9, 0xae, 0x3d, 0x3a, 0xa1, 0x91, 0xbd,
  0x92, 0xd6, 0x20, 0xbe, 0x9a, 0x44, 0xb7, 0x3d, 0x11, 0x92, 0x43, 0x3e,
  0x0e, 0x64, 0xd3, 0x3d, 0x80, 0xc9, 0x19, 0xbe, 0x98, 0xf8, 0x9c, 0xbd,
  0x6e, 0x08, 0x3d, 0xbe, 0x05, 0xb4, 0x42, 0xbe, 0xcd, 0xfa, 0x25, 0x3e,
  0x40, 0x37, 0x78, 0xbb, 0xf3, 0x02, 0xd1, 0xbd, 0x00, 0x38, 0xec, 0x38,
  0xf8, 0xf1, 0x5d, 0xbd, 0x1c, 0x3f, 0x15, 0xbd, 0x20, 0x46, 0xbc, 0x3b,
  0xdd, 0x48, 0x1e, 0x3e, 0xda, 0xb3, 0xe8, 0x3d, 0xc2, 0x78, 0xb1, 0x3d,
  0x48, 0xd8, 0x1c, 0x3d, 0xa8, 0x7e, 0x83, 0xbd, 0x9c, 0xf6, 0x77, 0x3d,
  0x41, 0x85, 0x07, 0x3e, 0x74, 0xfd, 0x5a, 0x3d, 0x74, 0x4e, 0x31, 0x3d,
  0xf8, 0x3c, 0x88, 0xbd, 0x6e, 0x3d, 0xa0, 0x3d, 0x58, 0x9f, 0x8e, 0xbc,
  0xd5, 0x7f, 0x31, 0x3e, 0x2d, 0x1b, 0x3f, 0x3e, 0xfe, 0xfe, 0xd2, 0x3d,
  0xab, 0x24, 0x1a, 0xbe, 0x3d, 0x63, 0x21, 0x3e, 0xb8, 0xc6, 0x06, 0x3d,
  0xa0, 0xf5, 0x12, 0xbc, 0x86, 0xe5, 0xab, 0x3d, 0x3a, 0x84, 0xf8, 0x3d,
  0x52, 0x2f, 0x88, 0xbd, 0xec, 0x07, 0x10, 0xbe, 0x08, 0xd7, 0x3b, 0xbe,
  0xa0, 0x00, 0x65, 0xbc, 0x06, 0x84, 0xff, 0x3d, 0x6d, 0xdb, 0x41, 0x3e,
  0x14, 0xc8, 0x77, 0xbd, 0xe0, 0xb6, 0x07, 0x3c, 0xd7, 0xea, 0x2e, 0x3e,
  0xd4, 0x41, 0x17, 0xbd, 0x45, 0x44, 0x4e, 0x3e, 0xa0, 0x44, 0x34, 0x3c,
  0xd9, 0x32, 0x12, 0xbe, 0x23, 0x61, 0x51, 0x3e, 0x98, 0x30, 0x9a, 0xbc,
  0x46, 0x04, 0xc3, 0x3d, 0x43, 0xb8, 0x40, 0xbe, 0xb1, 0xa1, 0x44, 0xbe,
  0xac, 0xfb, 0x54, 0x3d, 0x3d, 0x13, 0x15, 0x3e, 0x64, 0x37, 0xa1, 0xbd,
  0x18, 0x7f, 0xd7, 0xbc, 0xef, 0x2b, 0x47, 0x3e, 0xa0, 0xab, 0xad, 0xbc,
  0x0f, 0x39, 0x42, 0xbe, 0x0b, 0x56, 0x4b, 0xbe, 0x20, 0x6f, 0xd4, 0xbb,
  0x66, 0x72, 0xb8, 0x3d, 0xa9, 0x3e, 0x40, 0x3e, 0xdf, 0x94, 0x44, 0x3e,
  0x7f, 0x32, 0x49, 0x3e, 0x1c, 0x72, 0x22, 0x3d, 0xe0, 0x65, 0xec, 0xbc,
  0x4a, 0x0f, 0xaa, 0xbd, 0x34, 0xde, 0x51, 0xbe, 0xa0, 0x66, 0xd0, 0x3b,
  0x34, 0xc7, 0x07, 0xbe, 0xc8, 0x3e, 0xf9, 0xbd, 0x84, 0xb6, 0x4f, 0xbe,
  0xe0, 0xdc, 0x7c, 0xbd, 0xd6, 0xfc, 0xbb, 0x3d, 0xc1, 0x22, 0x22, 0xbe,
  0xc4, 0x74, 0x72, 0xbd, 0x98, 0xc1, 0xae, 0x3c, 0x5b, 0xe9, 0x02, 0x3e,
  0xb0, 0x2b, 0xf7, 0xbc, 0xed, 0xdd, 0x55, 0xbe, 0xd8, 0xdf, 0xa4, 0xbd,
  0x56, 0x20, 0xc3, 0x3d, 0x30, 0x3d, 0x74, 0x3c, 0xf1, 0xd0, 0x03, 0x3e,
  0xda, 0x74, 0xd4, 0x3d, 0x32, 0x1d, 0xf6, 0xbd, 0xd6, 0xc1, 0x90, 0xbd,
  0x9d, 0xda, 0xd9, 0xbd, 0x44, 0xb0, 0x30, 0x3d, 0x29, 0x8a, 0x3b, 0xbe,
  0x73, 0xcf, 0x32, 0x3e, 0xa6, 0x35, 0x95, 0x3d, 0x39, 0x5a, 0x03, 0x3e,
  0x22, 0x6e, 0x25, 0xbe, 0x9a, 0xca, 0xff, 0x3d, 0x61, 0x62, 0x46, 0xbe,
  0x1c, 0x1d, 0xa9, 0xbd, 0xd0, 0xeb, 0x70, 0xbc, 0x61, 0xaf, 0x21, 0x3e,
  0xc0, 0x4e, 0x0d, 0x3b, 0xd6, 0x60, 0x09, 0xbe, 0x08, 0x06, 0x98, 0x3c,
  0x74, 0xf7, 0xe0, 0xbd, 0xde, 0xe8, 0xb5, 0x3d, 0xc8, 0x6b, 0x14, 0xbe,
  0x33, 0x2f, 0x4d, 0x3e, 0xe2, 0x72, 0x84, 0x3d, 0x9f, 0x9b, 0x51, 0x3e,
  0x3f, 0xe8, 0x26, 0x3e, 0x76, 0x70, 0x31, 0xbe, 0xa6, 0x39, 0x27, 0xbe,
  0xc8, 0xcf, 0x63, 0xbd, 0x53, 0xab, 0x1c, 0x3e, 0xe3, 0x3d, 0x18, 0xbe,
  0x55, 0x38, 0x21, 0x3e, 0x5d, 0xcd, 0x0e, 0x3e, 0x00, 0x5d, 0x38, 0xbd,
  0x00, 0x74, 0x08, 0xbc, 0x60, 0xb5, 0x8a, 0xbd, 0xb6, 0x4a, 0xdb, 0x3d,
  0x94, 0x21, 0x5c, 0xbd, 0xdf, 0xb6, 0x3a, 0x3e, 0xaf, 0x6c, 0x3b, 0x3e,
  0x00, 0x9a, 0x1e, 0xbb, 0x46, 0x8d, 0x95, 0xbd, 0xdd, 0xe8, 0x10, 0x3e,
  0x4d, 0x7f, 0x45, 0xbe, 0xbf, 0x56, 0x03, 0xbe, 0x24, 0x70, 0x2f, 0xbd,
  0x2d, 0xc0, 0x46, 0x3e, 0x16, 0x0f, 0xef, 0xbd, 0x5d, 0xd6, 0x2a, 0x3e,
  0x50, 0x00, 0x97, 0xbd, 0x10, 0xfe, 0x85, 0xbc, 0x7d, 0x90, 0x01, 0x3e,
  0xa4, 0xac, 0x30, 0xbd, 0x1a, 0x74, 0xca, 0x3d, 0xd0, 0x94, 0x39, 0xbc,
  0x50, 0xc4, 0x3f, 0xbd, 0x20, 0x71, 0x56, 0x3c, 0xf0, 0x5b, 0x82, 0xbd,
  0xa3, 0x58, 0x2b, 0x3e, 0xc9, 0xf3, 0xb2, 0xbd, 0x70, 0xb5, 0x02, 0x3d,
  0x7c, 0x67, 0x79, 0x3d, 0x63, 0x11, 0x00, 0x3e, 0xf2, 0x8b, 0xc8, 0x3d,
  0x9e, 0xdb, 0x9f, 0xbd, 0x43, 0x20, 0x25, 0x3e, 0x44, 0x9c, 0x64, 0x3d,
  0x67, 0x69, 0xc0, 0xbd, 0x53, 0xa7, 0x35, 0x3e, 0xd1, 0x55, 0xce, 0xbd,
  0x92, 0x92, 0xbe, 0x3d, 0xc0, 0x1d, 0xdb, 0x3b, 0x92, 0xea, 0x25, 0xbe,
  0x6d, 0xd4, 0x17, 0xbe, 0x6a, 0xd7, 0xe9, 0x3d, 0x9d, 0x5b, 0x19, 0xbe,
  0xad, 0x55, 0x44, 0x3e, 0x38, 0x35, 0x01, 0xbd, 0xaa, 0x1e, 0xa7, 0xbd,
  0xf4, 0x34, 0x1d, 0xbe, 0x18, 0xd7, 0xa2, 0xbd, 0x8b, 0x14, 0x0d, 0x3e,
  0xa5, 0x8c, 0x4d, 0xbe, 0x00, 0x6c, 0xfb, 0xbd, 0x60, 0xc9, 0xf5, 0xbb,
  0x36, 0xc0, 0xa3, 0xbd, 0x20, 0x85, 0x2a, 0x3c, 0x90, 0xaa, 0x63, 0xbd,
  0x7d, 0x86, 0xef, 0xbd, 0x18, 0x74, 0x08, 0xbd, 0xb4, 0x55, 0x5f, 0x3d,
  0x08, 0x64, 0x97, 0xbd, 0xb1, 0x18, 0x50, 0x3e, 0xda, 0xe5, 0xf1, 0x3d,
  0x2f, 0xfc, 0x47, 0xbe, 0xa8, 0x3d, 0x3e, 0xbd, 0x8d, 0xee, 0x38, 0xbe,
  0xb0, 0x62, 0xee, 0x3c, 0x40, 0x24, 0x9c, 0xbc, 0xf8, 0x9f, 0xe4, 0x3c,
  0x04, 0xcc, 0x6c, 0xbd, 0xb0, 0x3e, 0x91, 0xbc, 0xeb, 0x33, 0x44, 0xbe,
  0xad, 0xc5, 0xfb, 0xbd, 0xc0, 0x4a, 0xe0, 0xbc, 0x98, 0x0a, 0xb1, 0xbc,
  0x66, 0x24, 0xff, 0x3d, 0xe4, 0x3b, 0x7e, 0x3d, 0xcf, 0xfb, 0x17, 0x3e,
  0x2c, 0x8c, 0x21, 0x3d, 0x22, 0x03, 0xa3, 0x3d, 0xbc, 0x28, 0x21, 0xbe,
  0x1b, 0xc2, 0x56, 0x3e, 0x38, 0x5c, 0xe5, 0xbc, 0x3b, 0xc0, 0x29, 0x3e,
  0x01, 0x82, 0x3a, 0x3e, 0x32, 0xf7, 0x90, 0x3d, 0xb7, 0x83, 0x06, 0xbe,
  0xb0, 0xa2, 0x0d, 0xbc, 0xb1, 0x9d, 0x33, 0xbe, 0x00, 0xd4, 0x3a, 0x3c,
  0xf1, 0x27, 0xc8, 0xbd, 0x30, 0x8d, 0x65, 0xbd, 0xa4, 0x08, 0x2e, 0x3d,
  0x72, 0x2c, 0x81, 0x3d, 0x74, 0xd4, 0x03, 0x3d, 0xc1, 0xa2, 0xcd, 0xbd,
  0xbe, 0xcf, 0x01, 0xbe, 0x76, 0xde, 0xe3, 0x3d, 0x1c, 0x8b, 0x39, 0x3d,
  0x9a, 0xee, 0xbd, 0xbd, 0xfe, 0x64, 0x19, 0xbe, 0xb0, 0xaa, 0x03, 0x3c,
  0x37, 0xd8, 0x3c, 0x3e, 0x57, 0x3e, 0x51, 0x3e, 0xf2, 0x6e, 0x9f, 0x3d,
  0x49, 0x50, 0x24, 0x3e, 0x24, 0x22, 0x7c, 0x3d, 0x9a, 0xe5, 0xf6, 0x3d,
  0xca, 0x39, 0xfc, 0x3d, 0xc0, 0x58, 0xbb, 0x3b, 0x58, 0xfd, 0x82, 0xbd,
  0xad, 0x1a, 0xbf, 0xbd, 0xd2, 0x41, 0x9d, 0x3d, 0x90, 0xc8, 0x02, 0xbd,
  0xe8, 0xd8, 0xe7, 0xbc, 0x7e, 0xbf, 0x96, 0x3d, 0x3c, 0xe4, 0x79, 0x3d,
  0x58, 0xd8, 0x2b, 0xbd, 0x77, 0xe3, 0x1f, 0x3e, 0xeb, 0x65, 0x2b, 0x3e,
  0xb3, 0x70, 0x0c, 0x3e, 0x80, 0xd9, 0x49, 0x3c, 0x0a, 0x82, 0xe3, 0x3d,
  0x90, 0xf7, 0x1e, 0x3d, 0x6b, 0x25, 0x1d, 0x3e, 0x8b, 0x7e, 0x55, 0x3e,
  0x1e, 0x75, 0xc1, 0x3d, 0xae, 0xd7, 0x9a, 0xbd, 0x41, 0xea, 0xd8, 0xbd,
  0x7f, 0x16, 0x2c, 0x3e, 0x7e, 0xb8, 0x8b, 0x3d, 0xe6, 0x36, 0xdc, 0x3d,
  0xc0, 0x9f, 0x99, 0x3b, 0x1e, 0xb1, 0x27, 0xbe, 0xb6, 0x1d, 0xb1, 0xbd,
  0x10, 0x84, 0xf7, 0xbd, 0xb2, 0x0f, 0x4c, 0xbe, 0xc8, 0x00, 0xab, 0x3c,
  0xc6, 0xd8, 0xc5, 0x3d, 0x97, 0xf3, 0x0c, 0x3e, 0x61, 0x09, 0x37, 0x3e,
  0xac, 0x0b, 0x53, 0x3d, 0x4e, 0xf9, 0xde, 0x3d, 0xb5, 0x4a, 0x55, 0xbe,
  0xa8, 0x2f, 0xd6, 0xbd, 0xd0, 0x1e, 0x01, 0x3d, 0x15, 0x05, 0x02, 0xbe,
  0xab, 0xbd, 0x14, 0x3e, 0xbc, 0xc8, 0x53, 0x3d, 0x2c, 0xa7, 0xa5, 0xbd,
  0xd2, 0x7f, 0x88, 0x3d, 0xe0, 0xcf, 0x1c, 0xbc, 0x36, 0x47, 0xdc, 0xbd,
  0x60, 0xad, 0x62, 0xbd, 0x69, 0x5a, 0x06, 0x3e, 0x9b, 0xfb, 0x27, 0x3e,
  0x83, 0x4c, 0xb7, 0xbd, 0xd0, 0xc9, 0x24, 0xbe, 0xad, 0xf3, 0x3b, 0x3e,
  0x54, 0x09, 0x93, 0xbd, 0x53, 0xb8, 0x28, 0x3e, 0x5a, 0xd8, 0xcf, 0xbd,
  0xcd, 0x1c, 0x21, 0x3e, 0x60, 0xf8, 0x09, 0xbd, 0x59, 0x51, 0xb8, 0xbd,
  0x30, 0x6c, 0xbb, 0xbd, 0x84, 0xee, 0x38, 0x3d, 0x22, 0xe2, 0x9b, 0x3d,
  0xc8, 0x7d, 0x15, 0xbe, 0xf3, 0x4b, 0xec, 0xbd, 0x98, 0xd5, 0x3b, 0xbe,
  0xb4, 0xb7, 0x49, 0xbe, 0xe6, 0x08, 0xd6, 0x3d, 0xc2, 0x29, 0x88, 0x3d,
  0x0d, 0x9a, 0x3f, 0x3e, 0x56, 0x16, 0xfa, 0x3d, 0xe4, 0x22, 0x22, 0xbd,
  0x1e, 0x3a, 0xce, 0x3d, 0x93, 0xc9, 0x42, 0x3e, 0x31, 0x8a, 0x3a, 0x3e,
  0x41, 0xcc, 0x54, 0x3e, 0x80, 0x49, 0xb8, 0x3c, 0xec, 0x38, 0x0d, 0xbe,
  0xc0, 0xa6, 0xaa, 0x3c, 0xb4, 0x7f, 0x49, 0xbd, 0x8d, 0xba, 0x13, 0x3e,
  0x68, 0x76, 0xa5, 0xbc, 0x65, 0x31, 0x55, 0xbe, 0x62, 0x0c, 0x38, 0xbe,
  0x0b, 0x63, 0x3b, 0xbe, 0x39, 0xac, 0x57, 0xbe, 0xec, 0x9c, 0x4c, 0xbd,
  0xb5, 0xbf, 0x07, 0x3e, 0x48, 0xca, 0x97, 0xbc, 0x9b, 0x4c, 0xd3, 0xbd,
  0x54, 0x7e, 0x78, 0x3d, 0x83, 0x08, 0x33, 0x3e, 0x60, 0x6a, 0x63, 0x3c,
  0x2e, 0x5e, 0x80, 0x3d, 0x5f, 0x66, 0x11, 0x3e, 0x8d, 0x12, 0x4c, 0x3e,
  0xf0, 0xa2, 0x3c, 0xbd, 0xf4, 0x5a, 0x18, 0x3d, 0x9b, 0xff, 0x14, 0xbe,
  0xc0, 0xfd, 0x2b, 0xbb, 0x96, 0x10, 0xef, 0x3d, 0x68, 0xf8, 0xa9, 0x3c,
  0x84, 0xe1, 0x0c, 0x3d, 0x95, 0x67, 0x40, 0x3e, 0x81, 0x1a, 0xc2, 0xbd,
  0x06, 0xf6, 0xfe, 0x3d, 0x10, 0x4c, 0xf2, 0x3c, 0x9d, 0xf3, 0x31, 0xbe,
  0x47, 0x4f, 0x57, 0xbe, 0x90, 0x00, 0x13, 0xbc, 0x49, 0x0a, 0x3c, 0xbe,
  0x40, 0xbb, 0x4a, 0x3b, 0x45, 0xc5, 0xfa, 0xbd, 0x72, 0xc7, 0xa6, 0x3d,
  0x3d, 0x2f, 0x4f, 0x3e, 0x9c, 0x87, 0x03, 0x3d, 0xc7, 0x15, 0x1a, 0x3e,
  0x06, 0xf6, 0xc6, 0x3d, 0xb1, 0x88, 0x35, 0x3e, 0xdf, 0x49, 0x03, 0x3e,
  0xe6, 0x88, 0x84, 0x3d, 0xe0, 0x7c, 0xc4, 0x3b, 0x49, 0x06, 0x37, 0x3e,
  0xf4, 0x7f, 0x52, 0xbd, 0x82, 0xc2, 0x4c, 0xbe, 0x10, 0x9f, 0x26, 0xbd,
  0x57, 0x41, 0x36, 0x3e, 0x14, 0xae, 0x36, 0x3d, 0x2f, 0xd4, 0x39, 0x3e,
  0xb1, 0x32, 0x15, 0x3e, 0x3a, 0xa6, 0xf8, 0xbd, 0xc8, 0x51, 0x43, 0xbd,
  0x54, 0x78, 0x4d, 0x3d, 0x41, 0x2a, 0x4d, 0x3e, 0x22, 0xd0, 0xae, 0x3d,
  0x04, 0x66, 0xa6, 0xbd, 0x48, 0x49, 0x1d, 0x3d, 0x18, 0xc7, 0x91, 0x3c,
  0xfe, 0xc0, 0xc0, 0x3d, 0x6a, 0xc1, 0xa1, 0x3d, 0x5e, 0xa7, 0xe0, 0x3d,
  0x0d, 0x7d, 0x3f, 0xbe, 0xdb, 0x35, 0x25, 0x3e, 0x18, 0x9a, 0xdd, 0x3c,
  0x6a, 0xa1, 0xd3, 0x3d, 0xb4, 0xb2, 0x9e, 0xbd, 0x66, 0xe0, 0xc1, 0xbd,
  0xd5, 0x4f, 0x1c, 0x3e, 0xb9, 0xfb, 0x40, 0x3e, 0x05, 0x29, 0x28, 0x3e,
  0x5a, 0x9a, 0xb6, 0x3d, 0xcc, 0x71, 0x2e, 0x3d, 0x9f, 0x34, 0x06, 0x3e,
  0x38, 0x28, 0x9b, 0x3c, 0xc1, 0x71, 0x12, 0x3e, 0xd9, 0xa1, 0x46, 0x3e,
  0xf0, 0x0a, 0xb1, 0x3c, 0xa2, 0x60, 0xf6, 0x3d, 0x6e, 0xef, 0xfc, 0x3d,
  0xa2, 0xf5, 0x99, 0x3d, 0xf4, 0x78, 0x2a, 0xbd, 0xed, 0xc8, 0xeb, 0xbd,
  0x6e, 0x45, 0x23, 0xbe, 0x70, 0xc2, 0x41, 0x3c, 0xd6, 0xce, 0xb4, 0x3d,
  0x49, 0xc3, 0x53, 0x3e, 0x80, 0x22, 0xa8, 0x3c, 0xd9, 0x4a, 0x25, 0xbe,
  0x80, 0x68, 0xb8, 0xbc, 0x8a, 0x9a, 0xfb, 0xbd, 0x0a, 0x28, 0xb9, 0xbd,
  0x52, 0x10, 0xe9, 0x3d, 0xdd, 0x1a, 0x3b, 0xbe, 0xa1, 0x25, 0x3f, 0x3e,
  0x7e, 0xde, 0xac, 0xbd, 0x9c, 0xb4, 0x52, 0xbd, 0xc4, 0x0f, 0x32, 0xbd,
  0xda, 0xe4, 0xf7, 0xbd, 0x52, 0xf5, 0x20, 0xbe, 0x07, 0xa6, 0x37, 0x3e,
  0x79, 0xe7, 0x24, 0xbe, 0x15, 0x7c, 0x10, 0x3e, 0x8e, 0x1f, 0xc7, 0x3d,
  0x9f, 0xd9, 0xc9, 0xbd, 0xa3, 0xc1, 0x17, 0x3e, 0x14, 0xe7, 0x29, 0xbd,
  0xfc, 0xc1, 0x19, 0x3d, 0xf0, 0x1f, 0x11, 0x3c, 0xa0, 0x49, 0xfb, 0xbb,
  0xcd, 0xc6, 0x15, 0xbe, 0xa0, 0x7b, 0x1e, 0x3c, 0xf8, 0xf7, 0x40, 0xbe,
  0x89, 0x9b, 0x2c, 0xbe, 0xe0, 0x97, 0x28, 0xbd, 0xf4, 0x16, 0x75, 0x3d,
  0x8e, 0x56, 0x0d, 0xbe, 0xa1, 0x2d, 0x35, 0xbe, 0x8d, 0x8d, 0x31, 0x3e,
  0x66, 0x5d, 0xaa, 0x3d, 0x10, 0xa1, 0x48, 0x3c, 0x16, 0x1d, 0x9b, 0x3d,
  0xd0, 0x9c, 0x52, 0xbc, 0x28, 0x2e, 0xba, 0xbc, 0xc0, 0x94, 0x86, 0xbd,
  0xe4, 0xf6, 0x6f, 0x3d, 0x50, 0x56, 0x18, 0xbd, 0xc0, 0x6c, 0xb3, 0xbb,
  0x8b, 0x4d, 0x32, 0x3e, 0x16, 0xd0, 0x3e, 0xbe, 0x2a, 0xda, 0xaf, 0x3d,
  0xc0, 0x3f, 0xb7, 0xbc, 0x34, 0x7c, 0x0d, 0xbd, 0xf2, 0xba, 0xd7, 0x3d,
  0xfe, 0x32, 0x2c, 0xbe, 0x44, 0x69, 0x67, 0x3d, 0x91, 0x8d, 0x55, 0x3e,
  0x5c, 0x11, 0x02, 0x3d, 0x82, 0xba, 0xfe, 0x3d, 0xe0, 0x00, 0xa3, 0x3c,
  0x0f, 0x2a, 0x4f, 0x3e, 0xb0, 0x0b, 0x30, 0xbe, 0xd0, 0xb0, 0x03, 0xbc,
  0x15, 0xa9, 0x03, 0x3e, 0xee, 0x0d, 0x0a, 0xbe, 0xa2, 0x36, 0xa8, 0x3d,
  0xc1, 0xeb, 0x02, 0x3e, 0x79, 0x18, 0x20, 0x3e, 0x70, 0xca, 0x9f, 0xbd,
  0x3c, 0x1e, 0x6d, 0xbd, 0xe4, 0x60, 0xc2, 0xbd, 0x86, 0x4b, 0xd1, 0x3d,
  0x38, 0x4a, 0xe0, 0xbc, 0xfe, 0x56, 0x4c, 0xbe, 0x9e, 0x51, 0xc5, 0xbd,
  0x58, 0x36, 0xb6, 0x3c, 0xa0, 0x3c, 0x79, 0xbc, 0xe6, 0x05, 0xcf, 0x3d,
  0x08, 0x0b, 0x27, 0xbe, 0x2e, 0x1e, 0xee, 0x3d, 0xb0, 0xa4, 0x00, 0xbe,
  0xc8, 0xfa, 0x06, 0x3d, 0x4e, 0xdd, 0xd5, 0x3d, 0x8d, 0x80, 0xcb, 0xbd,
  0xf7, 0x58, 0xb0, 0xbd, 0x39, 0x6c, 0x09, 0x3e, 0x27, 0x2e, 0x57, 0x3e,
  0x7d, 0x72, 0x49, 0x3e, 0xc6, 0x5b, 0x50, 0xbe, 0xa2, 0x51, 0xce, 0x3d,
  0x80, 0xa0, 0xc4, 0xbc, 0x54, 0x15, 0x47, 0xbd, 0xf0, 0x11, 0x0c, 0xbe,
  0xd2, 0x11, 0xac, 0x3d, 0xc5, 0xcc, 0xd4, 0xbd, 0xe5, 0x66, 0x49, 0xbe,
  0xb8, 0xec, 0x81, 0xbc, 0x4e, 0xcd, 0x0b, 0xbe, 0x4e, 0x14, 0xfe, 0x3d,
  0x33, 0xa6, 0x22, 0x3e, 0x28, 0x4b, 0xba, 0xbc, 0x8a, 0x31, 0x97, 0x3d,
  0x00, 0x14, 0xe3, 0xbb, 0xf0, 0xba, 0x27, 0xbe, 0x28, 0xc0, 0xfb, 0xbc,
  0x2a, 0x23, 0xf1, 0x3d, 0x76, 0x1e, 0xbe, 0x3d, 0x39, 0xe9, 0x0f, 0x3e,
  0x99, 0x41, 0x57, 0x3e, 0xca, 0x0b, 0x87, 0x3d, 0xb6, 0x18, 0xdd, 0xbd,
  0x89, 0xdd, 0x4a, 0x3e, 0x80, 0xcd, 0x00, 0x3c, 0x40, 0x41, 0x99, 0xbd,
  0xf1, 0xae, 0x2d, 0xbe, 0x22, 0x84, 0x47, 0xbe, 0x70, 0x03, 0xad, 0xbd,
  0x41, 0xaa, 0x28, 0x3e, 0xf6, 0x19, 0x9b, 0x3d, 0x3a, 0x52, 0x91, 0x3d,
  0xcb, 0x91, 0x14, 0x3e, 0x42, 0xb5, 0xfd, 0x3d, 0x85, 0x50, 0xce, 0xbd,
  0xab, 0x8e, 0x51, 0x3e, 0x17, 0x63, 0x24, 0xbe, 0xea, 0x47, 0x52, 0xbe,
  0xf8, 0x6c, 0x81, 0x3c, 0x20, 0x14, 0x70, 0xbc, 0x02, 0x9f, 0xd3, 0x3d,
  0xb3, 0xb3, 0x11, 0x3e, 0x56, 0xbb, 0xb8, 0xbd, 0x48, 0xf0, 0x88, 0xbc,
  0xe0, 0xd6, 0xc7, 0x3b, 0xb7, 0x50, 0x38, 0x3e, 0x54, 0x11, 0x2c, 0x3d,
  0x00, 0xb1, 0x43, 0xba, 0x19, 0xac, 0x23, 0x3e, 0x28, 0xbd, 0xb9, 0xbc,
  0xdc, 0xf6, 0x37, 0x3d, 0x3b, 0x68, 0x3e, 0xbe, 0x4a, 0x73, 0xf2, 0x3d,
  0x82, 0x89, 0xa4, 0x3d, 0xb4, 0x5e, 0x59, 0xbd, 0x3e, 0x08, 0xc8, 0x3d,
  0x60, 0x76, 0x9a, 0xbb, 0x92, 0x1e, 0x95, 0xbd, 0xaf, 0xd8, 0x4a, 0x3e,
  0x1c, 0x4a, 0x85, 0xbd, 0x8a, 0x11, 0x4c, 0xbe, 0x56, 0x7f, 0xb0, 0x3d,
  0xba, 0xf6, 0x81, 0x3d, 0x71, 0x8e, 0x1e, 0x3e, 0x34, 0xb5, 0x06, 0xbe,
  0x67, 0x69, 0xdf, 0xbd, 0x25, 0x45, 0x3e, 0xbe, 0xff, 0x90, 0x40, 0xbe,
  0xa1, 0x3d, 0xc4, 0xbd, 0x2e, 0xc7, 0xda, 0x3d, 0x04, 0x5c, 0x42, 0xbe,
  0x2f, 0x19, 0x04, 0x3e, 0x18, 0x0b, 0xad, 0xbc, 0xd0, 0x0c, 0x2c, 0xbe,
  0x5e, 0x57, 0x36, 0xbe, 0x70, 0x2b, 0xdd, 0xbc, 0x3a, 0x09, 0x45, 0xbe,
  0x64, 0x58, 0x5c, 0xbd, 0x76, 0x62, 0xeb, 0x3d, 0x54, 0xa4, 0x79, 0x3d,
  0x70, 0xa3, 0x93, 0xbc, 0xac, 0xde, 0x51, 0xbd, 0xda, 0xdd, 0xe5, 0x3d,
  0xc9, 0xad, 0x2d, 0x3e, 0x83, 0x9b, 0x0a, 0x3e, 0x9f, 0xbf, 0x0c, 0x3e,
  0xbd, 0xeb, 0x4a, 0x3e, 0x47, 0xb2, 0x0e, 0x3e, 0x5b, 0xcc, 0x2c, 0x3e,
  0x16, 0xf2, 0xfc, 0x3d, 0x52, 0x41, 0xee, 0x3d, 0x68, 0x1c, 0x04, 0xbd,
  0x70, 0xbd, 0xf6, 0xbc, 0x27, 0x5b, 0x33, 0x3e, 0xe0, 0xe6, 0x55, 0xbc,
  0x53, 0xb4, 0xd9, 0xbd, 0xbc, 0xc2, 0x0c, 0x3d, 0x8f, 0x0c, 0x27, 0x3e,
  0x0f, 0x1d, 0x24, 0xbe, 0xae, 0x55, 0xc9, 0x3d, 0x6b, 0x02, 0x27, 0x3e,
  0xd1, 0x70, 0x28, 0x3e, 0xfc, 0xb5, 0x3d, 0xbe, 0x15, 0xdf, 0xda, 0xbd,
  0x14, 0x3e, 0x74, 0x3d, 0x20, 0x77, 0xaa, 0xbc, 0x04, 0x41, 0x05, 0xbe,
  0x50, 0xc6, 0xce, 0x3c, 0x10, 0x7e, 0x32, 0xbc, 0x67, 0xa9, 0x38, 0xbe,
  0xb8, 0x6a, 0xaf, 0xbd, 0xe0, 0x88, 0x4e, 0xbc, 0x34, 0x7b, 0x29, 0x3d,
  0x7a, 0xa4, 0x1d, 0xbe, 0x67, 0xfe, 0x31, 0x3e, 0x77, 0x88, 0x4b, 0x3e,
  0x18, 0xbf, 0xd2, 0xbd, 0x08, 0xa2, 0x1a, 0xbd, 0x3c, 0x14, 0x2b, 0x3d,
  0x06, 0x8a, 0xcc, 0x3d, 0x36, 0x8d, 0xa5, 0x3d, 0x33, 0x6d, 0xfa, 0xbd,
  0x2c, 0xc2, 0x41, 0xbe, 0xbe, 0xe3, 0xd6, 0x3d, 0x7a, 0x5c, 0xa0, 0xbd,
  0xcd, 0xb1, 0x13, 0x3e, 0x80, 0x17, 0x69, 0xbd, 0x78, 0xf8, 0x3c, 0xbd,
  0xc5, 0x3c, 0x2e, 0xbe, 0xb4, 0x2c, 0x07, 0x3d, 0xba, 0x9c, 0xf3, 0x3d,
  0x6c, 0x32, 0x6d, 0x3d, 0x94, 0xb3, 0x3d, 0x3d, 0x98, 0x75, 0x8b, 0xbc,
  0x68, 0x01, 0xb8, 0xbc, 0xf1, 0x01, 0x3e, 0x3e, 0xa6, 0x2c, 0x01, 0xbe,
  0x7a, 0x6f, 0xe6, 0x3d, 0x54, 0xe6, 0x4c, 0x3d, 0x65, 0xa6, 0xe0, 0xbd,
  0x8f, 0x46, 0x16, 0xbe, 0x40, 0x07, 0xb1, 0x3b, 0x98, 0x51, 0xe0, 0xbd,
  0xaa, 0x17, 0xc3, 0x3d, 0x40, 0xa4, 0xdb, 0xbb, 0xe8, 0xf7, 0xbd, 0xbd,
  0x90, 0x61, 0x80, 0xbc, 0x31, 0x75, 0x17, 0x3e, 0x72, 0x5a, 0x05, 0xbe,
  0xdf, 0x14, 0x54, 0xbe, 0x2c, 0xfc, 0x2b, 0x3d, 0x35, 0x12, 0x3c, 0x3e,
  0xe0, 0x02, 0x75, 0xbd, 0xc7, 0x58, 0x53, 0x3e, 0x37, 0xdb, 0x4b, 0x3e,
  0x0e, 0xdc, 0x52, 0xbe, 0x10, 0x3b, 0x58, 0xbc, 0xa8, 0x0f, 0x12, 0xbe,
  0x16, 0x51, 0xcf, 0xbd, 0x32, 0x0d, 0x0b, 0xbe, 0x42, 0x95, 0x54, 0xbe,
  0xfa, 0x51, 0xf6, 0xbd, 0x0c, 0xa0, 0x37, 0xbe, 0xf8, 0xd2, 0x78, 0xbd,
  0x10, 0xa7, 0x96, 0xbd, 0x91, 0x69, 0x3d, 0x3e, 0xf3, 0xd3, 0x4e, 0x3e,
  0x46, 0x6f, 0xbd, 0x3d, 0x79, 0x6f, 0x08, 0x3e, 0x37, 0xf4, 0x1f, 0x3e,
  0xc0, 0xcb, 0x41, 0xbe, 0x3c, 0x48, 0x48, 0xbe, 0xa8, 0x68, 0x1c, 0x3d,
  0xba, 0x78, 0xa2, 0xbd, 0x13, 0xfc, 0x10, 0xbe, 0xf0, 0xe0, 0x06, 0x3c,
  0xc2, 0x9d, 0xb7, 0xbd, 0xe9, 0x77, 0x21, 0x3e, 0x51, 0x24, 0x4d, 0xbe,
  0xc6, 0x7f, 0xad, 0xbd, 0xd3, 0xc2, 0x0b, 0x3e, 0xc4, 0xb6, 0x56, 0xbe,
  0x7e, 0x79, 0xd2, 0x3d, 0xdd, 0xb7, 0x05, 0x3e, 0xac, 0x15, 0x60, 0xbd,
  0x75, 0x47, 0xc6, 0xbd, 0xf0, 0xce, 0x0a, 0xbc, 0xc7, 0xa6, 0x04, 0x3e,
  0x3a, 0xb8, 0xbc, 0x3d, 0x40, 0xc5, 0xb3, 0xbb, 0xd4, 0xd0, 0x52, 0xbe,
  0x40, 0xcd, 0x46, 0xbb, 0x32, 0x54, 0xd3, 0xbd, 0xfd, 0x80, 0x29, 0x3e,
  0x56, 0xee, 0x26, 0xbe, 0x54, 0x06, 0x69, 0x3d, 0xe2, 0x79, 0xd6, 0x3d,
  0x00, 0x06, 0x9f, 0x3a, 0x50, 0xe3, 0xa3, 0x3c, 0xb7, 0xa1, 0x2a, 0x3e,
  0xdc, 0x57, 0x52, 0xbe, 0xf5, 0x87, 0x25, 0x3e, 0xff, 0x54, 0x55, 0xbe,
  0xd1, 0xfa, 0x20, 0x3e, 0x47, 0xe0, 0x3a, 0x3e, 0x76, 0x42, 0xc9, 0x3d,
  0x8e, 0x1b, 0x80, 0x3d, 0xea, 0xd2, 0x0f, 0xbe, 0x3c, 0x12, 0x49, 0x3d,
  0x28, 0xc5, 0x13, 0xbe, 0x94, 0x08, 0x75, 0x3d, 0xab, 0xd9, 0x11, 0x3e,
  0xae, 0xa4, 0xac, 0xbd, 0x82, 0x31, 0x8e, 0xbd, 0xba, 0xe1, 0xaf, 0x3d,
  0x30, 0x78, 0xdb, 0x3c, 0x33, 0xf0, 0x52, 0x3e, 0xe8, 0x73, 0x49, 0xbd,
  0xc8, 0x84, 0xc1, 0x3c, 0x70, 0xa9, 0x6d, 0xbd, 0x3d, 0xbb, 0xc9, 0xbd,
  0x4c, 0xfd, 0x23, 0x3d, 0xe9, 0x79, 0xc5, 0xbd, 0xb6, 0x7b, 0x10, 0xbe,
  0x8c, 0x20, 0x5a, 0xbd, 0xf0, 0xc9, 0x06, 0x3d, 0xde, 0x76, 0x9b, 0x3d,
  0x57, 0xe2, 0xf2, 0xbd, 0xe4, 0x21, 0x51, 0x3d, 0x34, 0x66, 0x6b, 0x3d,
  0x47, 0x24, 0x24, 0x3e, 0x0d, 0xbf, 0x15, 0x3e, 0xcf, 0xf1, 0x1e, 0x3e,
  0x58, 0xfe, 0x10, 0x3d, 0x19, 0x18, 0x03, 0x3e, 0x31, 0xc5, 0x3f, 0x3e,
  0x5b, 0x49, 0x11, 0x3e, 0x2d, 0x4b, 0x46, 0x3e, 0xd4, 0xee, 0x54, 0xbe,
  0x44, 0x40, 0x73, 0xbd, 0xaa, 0xfb, 0xa6, 0x3d, 0x51, 0xe1, 0x26, 0x3e,
  0x5c, 0xd2, 0x39, 0x3d, 0x26, 0x52, 0x01, 0xbe, 0xd1, 0x82, 0x23, 0x3e,
  0x85, 0x40, 0x1c, 0x3e, 0xee, 0x0d, 0x4f, 0xbe, 0xc9, 0x90, 0x28, 0x3e,
  0xbe, 0x35, 0x3d, 0xbe, 0xdc, 0xfd, 0x61, 0x3d, 0xd0, 0xcf, 0x69, 0x3c,
  0xd7, 0xb9, 0x2b, 0xbe, 0x3c, 0xb8, 0x7a, 0x3d, 0x10, 0x43, 0xe3, 0xbc,
  0x12, 0xf5, 0x3f, 0xbe, 0x86, 0x2b, 0x47, 0xbe, 0xd2, 0x62, 0xc0, 0x3d,
  0xf0, 0xee, 0x2e, 0x3c, 0x10, 0xbe, 0xba, 0x3c, 0x82, 0x33, 0x4e, 0xbe,
  0xfc, 0xba, 0x8a, 0xbd, 0x3c, 0x88, 0x2e, 0x3d, 0x0e, 0xd6, 0x43, 0xbe,
  0xae, 0xaf, 0xeb, 0xbd, 0x70, 0xd9, 0x57, 0xbc, 0x6a, 0xa3, 0xc7, 0xbd,
  0x7e, 0xfb, 0x92, 0xbd, 0x0d, 0x74, 0x21, 0x3e, 0xd0, 0x76, 0xee, 0xbc,
  0x06, 0x40, 0x8e, 0xbd, 0x33, 0x10, 0x0b, 0x3e, 0x2b, 0x69, 0x23, 0x3e,
  0x00, 0x08, 0xc1, 0xb9, 0xbe, 0xe2, 0xe8, 0x3d, 0x6c, 0x3f, 0x82, 0xbd,
  0x46, 0x76, 0x89, 0x3d, 0x0e, 0xdb, 0x90, 0xbd, 0x8c, 0x48, 0x4f, 0xbd,
  0xe4, 0xd4, 0x11, 0xbe, 0x5f, 0x1f, 0xb5, 0xbd, 0x68, 0x40, 0xe5, 0xbc,
  0xe6, 0x5d, 0xa6, 0x3d, 0xcf, 0xa2, 0xc7, 0xbd, 0xbe, 0x62, 0xc0, 0x3d,
  0xec, 0x24, 0x0d, 0xbe, 0x30, 0x89, 0xfc, 0x3c, 0x2f, 0x93, 0x07, 0x3e,
  0x46, 0x7f, 0xe3, 0xbd, 0x62, 0xfb, 0xff, 0xff, 0x04, 0x00, 0x00, 0x00,
  0x00, 0x04, 0x00, 0x00, 0x38, 0xda, 0x16, 0xbd, 0x1c, 0xaa, 0xab, 0xbd,
  0xbb, 0x6d, 0xe5, 0xbd, 0xbe, 0xa8, 0xd5, 0x3d, 0x6e, 0x2f, 0x8f, 0xbd,
  0x48, 0xbe, 0xff, 0x3c, 0x00, 0xf6, 0x51, 0xbe, 0xbf, 0x49, 0x12, 0x3e,
  0xe0, 0xd0, 0x4e, 0xbc, 0xa1, 0xdb, 0x43, 0x3e, 0x29, 0x87, 0x1e, 0x3e,
  0x3e, 0x33, 0xb6, 0x3d, 0x51, 0x69, 0x48, 0xbe, 0x08, 0x78, 0xfa, 0xbd,
  0xf6, 0x96, 0x90, 0xbd, 0x69, 0xbc, 0x00, 0x3e, 0xa4, 0x9e, 0x35, 0xbd,
  0xd2, 0x7f, 0x5b, 0xbe, 0xb0, 0x3a, 0xf2, 0xbc, 0x7d, 0x3c, 0x29, 0x3e,
  0x90, 0xa4, 0x0a, 0xbc, 0x05, 0xbd, 0xf9, 0xbd, 0xb0, 0x4d, 0x05, 0xbe,
  0xe8, 0xcb, 0x1e, 0xbe, 0x96, 0x22, 0xad, 0x3d, 0x62, 0x38, 0x94, 0xbd,
  0xd2, 0xaf, 0x28, 0xbe, 0xd9, 0x7a, 0x20, 0xbe, 0xbe, 0x4e, 0x53, 0xbe,
  0x0a, 0x59, 0xac, 0x3d, 0x65, 0x72, 0x54, 0x3e, 0xf4, 0x7f, 0x61, 0xbd,
  0x71, 0x43, 0x15, 0x3e, 0x7c, 0x14, 0x0a, 0x3d, 0x09, 0xe6, 0x59, 0x3e,
  0x5b, 0x9f, 0x2c, 0x3e, 0x48, 0x6b, 0x8a, 0xbd, 0xe1, 0x00, 0x54, 0x3e,
  0xf4, 0xfa, 0x01, 0xbd, 0xc1, 0x55, 0x4e, 0x3e, 0x50, 0x31, 0x86, 0x3c,
  0xc1, 0x11, 0xe6, 0xbd, 0x74, 0x45, 0x6a, 0xbd, 0x7a, 0x90, 0x37, 0xbe,
  0xc9, 0x8c, 0x00, 0x3e, 0x9d, 0x01, 0x06, 0xbe, 0x34, 0x70, 0x1b, 0xbe,
  0xd5, 0x30, 0x4f, 0xbe, 0xd0, 0xe9, 0x47, 0xbd, 0xf0, 0x73, 0x2f, 0xbe,
  0x3e, 0xbb, 0xde, 0x3d, 0x46, 0x21, 0xd7, 0xbd, 0x90, 0xf9, 0x69, 0xbc,
  0x8b, 0xea, 0xef, 0xbd, 0xcd, 0x21, 0x54, 0x3e, 0x14, 0xc3, 0x15, 0x3d,
  0xd1, 0x0f, 0xfd, 0xbd, 0x2a, 0x3a, 0xb3, 0x3d, 0x0f, 0x39, 0x02, 0x3e,
  0x43, 0xba, 0xe4, 0xbd, 0xa1, 0x49, 0x14, 0x3e, 0x28, 0x05, 0xf3, 0x3c,
  0xba, 0xb3, 0x9d, 0x3d, 0x0e, 0x04, 0x8a, 0x3d, 0xa6, 0x55, 0x9d, 0xbd,
  0xe3, 0xd8, 0x55, 0x3e, 0xef, 0xaa, 0x5a, 0x3e, 0x48, 0xb8, 0x95, 0xbc,
  0xb0, 0x23, 0x6c, 0xbd, 0xed, 0x32, 0x41, 0x3e, 0xda, 0xbe, 0xe4, 0x3d,
  0x96, 0x61, 0xd7, 0x3d, 0x98, 0x2e, 0x3f, 0xbe, 0xc0, 0xa0, 0x3d, 0xbb,
  0xa6, 0xb7, 0xee, 0x3d, 0x00, 0x70, 0x53, 0xbc, 0x15, 0x41, 0x20, 0x3e,
  0xe1, 0xc9, 0x2c, 0xbe, 0xed, 0x36, 0x23, 0x3e, 0x2f, 0x1a, 0x33, 0x3e,
  0x0f, 0xa5, 0xc3, 0xbd, 0x30, 0xc3, 0x3a, 0x3c, 0xe0, 0x48, 0x31, 0xbc,
  0x60, 0xd5, 0x62, 0xbd, 0x30, 0x8d, 0x5b, 0x3c, 0x98, 0x72, 0x1a, 0xbe,
  0xf9, 0xb0, 0x3f, 0xbe, 0x56, 0x18, 0xbf, 0x3d, 0xe3, 0xed, 0x56, 0x3e,
  0x7f, 0xe3, 0x1e, 0x3e, 0x58, 0x19, 0xee, 0xbd, 0x54, 0x3f, 0x73, 0x3d,
  0x6b, 0x07, 0x40, 0x3e, 0xe2, 0xec, 0xd7, 0xbd, 0xb9, 0x2a, 0x24, 0x3e,
  0x53, 0xe5, 0x2c, 0x3e, 0xe8, 0xe7, 0xda, 0xbc, 0xce, 0xfa, 0xeb, 0x3d,
  0x9e, 0x13, 0x9d, 0x3d, 0xe7, 0xc1, 0x1d, 0x3e, 0x10, 0xd6, 0x2a, 0x3c,
  0xbc, 0x43, 0x03, 0xbe, 0xd8, 0x3b, 0x36, 0xbe, 0x03, 0x2c, 0x55, 0x3e,
  0x20, 0x71, 0xd7, 0xbb, 0xa5, 0x13, 0x0b, 0x3e, 0xaa, 0x7d, 0xd3, 0x3d,
  0x47, 0x65, 0x3b, 0x3e, 0x74, 0x71, 0x27, 0x3d, 0xd2, 0x28, 0x31, 0xbe,
  0x6c, 0xc8, 0x1b, 0xbd, 0xe0, 0x69, 0x88, 0x3c, 0x50, 0xed, 0xdd, 0xbc,
  0x66, 0xa2, 0xeb, 0x3d, 0x20, 0x42, 0x3d, 0xbe, 0xb0, 0x69, 0xeb, 0xbd,
  0xf9, 0xe2, 0x49, 0x3e, 0xa6, 0xab, 0x4e, 0xbe, 0x32, 0x0e, 0xdc, 0x3d,
  0xa8, 0x58, 0x29, 0xbe, 0x9b, 0x89, 0x0d, 0x3e, 0x3b, 0x47, 0x3e, 0x3e,
  0xfe, 0x5d, 0x2c, 0xbe, 0x3c, 0x46, 0x53, 0x3d, 0x97, 0x79, 0x10, 0x3e,
  0x60, 0x1a, 0xc3, 0xbb, 0x26, 0xd2, 0xaa, 0x3d, 0x5e, 0xdb, 0x29, 0xbe,
  0x8e, 0x2f, 0xc7, 0x3d, 0x2b, 0x47, 0x27, 0xbe, 0x32, 0xc9, 0xdc, 0x3d,
  0x8f, 0x53, 0x25, 0x3e, 0xcc, 0xcc, 0x18, 0xbd, 0xce, 0x70, 0x12, 0xbe,
  0x62, 0x22, 0x8e, 0xbd, 0x3c, 0x49, 0x39, 0x3d, 0xa8, 0x4c, 0xce, 0x3c,
  0xac, 0xac, 0xa5, 0xbd, 0x9c, 0x36, 0xa0, 0xbd, 0xa0, 0x31, 0x56, 0xbe,
  0x80, 0x10, 0x84, 0xbc, 0xdf, 0xed, 0x4e, 0xbe, 0x29, 0x8f, 0x3d, 0x3e,
  0xaa, 0xf3, 0xba, 0x3d, 0xf1, 0x17, 0xeb, 0xbd, 0xf5, 0x3c, 0x36, 0xbe,
  0x43, 0xea, 0x04, 0x3e, 0x5e, 0x70, 0xf1, 0x3d, 0xe8, 0xa6, 0xda, 0xbd,
  0x53, 0x43, 0xbf, 0xbd, 0x88, 0x3d, 0xe7, 0x3c, 0x47, 0x25, 0x13, 0xbe,
  0xb7, 0xdd, 0x2c, 0x3e, 0x26, 0x36, 0x90, 0xbd, 0xd8, 0x5f, 0xff, 0x3c,
  0xb1, 0x21, 0x0d, 0x3e, 0xba, 0x6a, 0xa8, 0x3d, 0x78, 0x99, 0x8b, 0xbd,
  0x3e, 0x96, 0xc8, 0x3d, 0x55, 0x35, 0x51, 0xbe, 0x6c, 0xc2, 0x11, 0xbe,
  0xb2, 0x72, 0x32, 0xbe, 0xf2, 0xda, 0xcc, 0xbd, 0x90, 0x3c, 0x9b, 0xbd,
  0x36, 0x93, 0xd2, 0x3d, 0x13, 0xd6, 0x28, 0x3e, 0xb0, 0xf7, 0xb5, 0xbd,
  0x7e, 0xd4, 0xe1, 0xbd, 0x40, 0xf3, 0x12, 0xbe, 0x62, 0x4c, 0x8e, 0xbd,
  0xd0, 0xcc, 0x61, 0xbd, 0x11, 0xfb, 0x35, 0x3e, 0x00, 0xa7, 0xba, 0xbb,
  0x18, 0x9d, 0x6f, 0xbd, 0xbd, 0xfe, 0x51, 0x3e, 0x00, 0x88, 0xa2, 0xb8,
  0x4c, 0x50, 0xe5, 0xbd, 0x92, 0x65, 0xf7, 0x3d, 0x17, 0x08, 0x4d, 0xbe,
  0x6b, 0x4e, 0x4b, 0x3e, 0x40, 0xd5, 0x8a, 0x3c, 0xe6, 0x38, 0xba, 0x3d,
  0x1c, 0x2f, 0x32, 0x3d, 0xa9, 0x86, 0x03, 0x3e, 0x57, 0xee, 0x0f, 0xbe,
  0x10, 0x84, 0xb9, 0xbc, 0x90, 0x62, 0xca, 0xbc, 0x25, 0x2b, 0x01, 0x3e,
  0x06, 0x15, 0xec, 0x3d, 0x65, 0xcc, 0x41, 0x3e, 0x72, 0xc5, 0xb7, 0x3d,
  0xee, 0x1b, 0xef, 0x3d, 0x12, 0xb9, 0x95, 0xbd, 0xd4, 0x10, 0xac, 0xbd,
  0x26, 0xc9, 0x43, 0xbe, 0x8f, 0x0d, 0x05, 0x3e, 0x93, 0xc2, 0x4d, 0x3e,
  0x39, 0xb8, 0x31, 0x3e, 0xcf, 0x3b, 0x3b, 0x3e, 0x73, 0xe4, 0x06, 0x3e,
  0x1c, 0x3a, 0x2c, 0x3d, 0x3c, 0x18, 0x12, 0xbe, 0x8c, 0x9b, 0x09, 0xbe,
  0xc3, 0xf5, 0x07, 0xbe, 0xbc, 0xcc, 0x3b, 0xbd, 0x26, 0x85, 0x01, 0xbe,
  0xa1, 0x7b, 0x33, 0x3e, 0x28, 0xeb, 0x5a, 0xbe, 0x0a, 0x9a, 0x99, 0xbd,
  0xf6, 0xed, 0xb3, 0xbd, 0x6c, 0x1b, 0x19, 0xbd, 0x7b, 0x0b, 0x1d, 0x3e,
  0x6f, 0x57, 0xd5, 0xbd, 0x78, 0x17, 0x80, 0xbc, 0x60, 0xb4, 0x0c, 0x3d,
  0x0e, 0xb3, 0x3a, 0xbe, 0xa4, 0x6d, 0x4e, 0x3d, 0x98, 0xf4, 0x75, 0xbd,
  0xee, 0xad, 0x02, 0xbe, 0xca, 0xd2, 0x8f, 0xbd, 0x8b, 0xba, 0x44, 0xbe,
  0x3f, 0x16, 0x22, 0x3e, 0xa4, 0x4e, 0x02, 0x3d, 0xc0, 0x47, 0xb7, 0xbc,
  0x19, 0xe0, 0x0c, 0x3e, 0xe1, 0xc5, 0xdf, 0xbd, 0xee, 0xea, 0x15, 0xbe,
  0xf0, 0x2b, 0x64, 0xbd, 0x20, 0xcd, 0x8f, 0xbd, 0x64, 0xde, 0x9b, 0xbd,
  0x01, 0x1c, 0x22, 0xbe, 0x0b, 0x7e, 0x18, 0x3e, 0xb8, 0x29, 0x7a, 0xbd,
  0x43, 0x3f, 0x3a, 0xbe, 0xf5, 0x53, 0x1e, 0x3e, 0x5b, 0xc8, 0x3c, 0xbe,
  0xd7, 0x41, 0x2e, 0xbe, 0x4c, 0x4e, 0x27, 0xbe, 0x1c, 0xaf, 0x3c, 0x3d,
  0x3c, 0xd4, 0xda, 0xbd, 0x44, 0x2d, 0x14, 0x3d, 0x00, 0x81, 0xeb, 0x3c,
  0x4c, 0x70, 0x37, 0x3d, 0xc3, 0x93, 0xe8, 0xbd, 0x67, 0xcf, 0x53, 0x3e,
  0xe6, 0xa1, 0x41, 0xbe, 0x82, 0x46, 0xdb, 0x3d, 0x86, 0x94, 0x4d, 0xbe,
  0x20, 0x64, 0x83, 0xbd, 0xbc, 0xc5, 0x70, 0x3d, 0x54, 0x98, 0x24, 0xbe,
  0x8b, 0x5d, 0x4f, 0x3e, 0x73, 0x31, 0x4a, 0x3e, 0xac, 0xdd, 0xab, 0xbd,
  0x34, 0xdb, 0x5b, 0x3d, 0x98, 0xb5, 0x11, 0xbd, 0xd0, 0xfc, 0xff, 0xff,
  0xd4, 0xfc, 0xff, 0xff, 0x0f, 0x00, 0x00, 0x00, 0x4d, 0x4c, 0x49, 0x52,
  0x20, 0x43, 0x6f, 0x6e, 0x76, 0x65, 0x72, 0x74, 0x65, 0x64, 0x2e, 0x00,
  0x01, 0x00, 0x00, 0x00, 0x14, 0x00, 0x00, 0x00, 0x00, 0x00, 0x0e, 0x00,
  0x18, 0x00, 0x14, 0x00, 0x10, 0x00, 0x0c, 0x00, 0x08, 0x00, 0x04, 0x00,
  0x0e, 0x00, 0x00, 0x00, 0x14, 0x00, 0x00, 0x00, 0x1c, 0x00, 0x00, 0x00,
  0xec, 0x00, 0x00, 0x00, 0xf0, 0x00, 0x00, 0x00, 0xf4, 0x00, 0x00, 0x00,
  0x04, 0x00, 0x00, 0x00, 0x6d, 0x61, 0x69, 0x6e, 0x00, 0x00, 0x00, 0x00,
  0x03, 0x00, 0x00, 0x00, 0x94, 0x00, 0x00, 0x00, 0x50, 0x00, 0x00, 0x00,
  0x14, 0x00, 0x00, 0x00, 0x00, 0x00, 0x0e, 0x00, 0x1a, 0x00, 0x14, 0x00,
  0x10, 0x00, 0x0c, 0x00, 0x0b, 0x00, 0x04, 0x00, 0x0e, 0x00, 0x00, 0x00,
  0x1c, 0x00, 0x00, 0x00, 0x00, 0x00, 0x00, 0x09, 0x1c, 0x00, 0x00, 0x00,
  0x20, 0x00, 0x00, 0x00, 0x01, 0x00, 0x00, 0x00, 0x00, 0x00, 0x06, 0x00,
  0x08, 0x00, 0x04, 0x00, 0x06, 0x00, 0x00, 0x00, 0x00, 0x00, 0x80, 0x3f,
  0x01, 0x00, 0x00, 0x00, 0x05, 0x00, 0x00, 0x00, 0x01, 0x00, 0x00, 0x00,
  0x04, 0x00, 0x00, 0x00, 0xce, 0xff, 0xff, 0xff, 0x10, 0x00, 0x00, 0x00,
  0x00, 0x00, 0x00, 0x08, 0x0c, 0x00, 0x00, 0x00, 0x10, 0x00, 0x00, 0x00,
  0x94, 0xfd, 0xff, 0xff, 0x01, 0x00, 0x00, 0x00, 0x04, 0x00, 0x00, 0x00,
  0x03, 0x00, 0x00, 0x00, 0x03, 0x00, 0x00, 0x00, 0x01, 0x00, 0x00, 0x00,
  0xff, 0xff, 0xff, 0xff, 0x00, 0x00, 0x0e, 0x00, 0x16, 0x00, 0x00, 0x00,
  0x10, 0x00, 0x0c, 0x00, 0x0b, 0x00, 0x04, 0x00, 0x0e, 0x00, 0x00, 0x00,
  0x18, 0x00, 0x00, 0x00, 0x00, 0x00, 0x00, 0x08, 0x18, 0x00, 0x00, 0x00,
  0x1c, 0x00, 0x00, 0x00, 0x00, 0x00, 0x06, 0x00, 0x08, 0x00, 0x07, 0x00,
  0x06, 0x00, 0x00, 0x00, 0x00, 0x00, 0x00, 0x01, 0x01, 0x00, 0x00, 0x00,
  0x03, 0x00, 0x00, 0x00, 0x03, 0x00, 0x00, 0x00, 0x00, 0x00, 0x00, 0x00,
  0x02, 0x00, 0x00, 0x00, 0xff, 0xff, 0xff, 0xff, 0x01, 0x00, 0x00, 0x00,
  0x05, 0x00, 0x00, 0x00, 0x01, 0x00, 0x00, 0x00, 0x00, 0x00, 0x00, 0x00,
  0x06, 0x00, 0x00, 0x00, 0xc8, 0x01, 0x00, 0x00, 0x70, 0x01, 0x00, 0x00,
  0x18, 0x01, 0x00, 0x00, 0xb0, 0x00, 0x00, 0x00, 0x50, 0x00, 0x00, 0x00,
  0x04, 0x00, 0x00, 0x00, 0x66, 0xfe, 0xff, 0xff, 0x00, 0x00, 0x00, 0x01,
  0x14, 0x00, 0x00, 0x00, 0x1c, 0x00, 0x00, 0x00, 0x1c, 0x00, 0x00, 0x00,
  0x06, 0x00, 0x00, 0x00, 0x24, 0x00, 0x00, 0x00, 0x02, 0x00, 0x00, 0x00,
  0xff, 0xff, 0xff, 0xff, 0x02, 0x00, 0x00, 0x00, 0x50, 0xfe, 0xff, 0xff,
  0x08, 0x00, 0x00, 0x00, 0x49, 0x64, 0x65, 0x6e, 0x74, 0x69, 0x74, 0x79,
  0x00, 0x00, 0x00, 0x00, 0x02, 0x00, 0x00, 0x00, 0x01, 0x00, 0x00, 0x00,
  0x02, 0x00, 0x00, 0x00, 0xae, 0xfe, 0xff, 0xff, 0x00, 0x00, 0x00, 0x01,
  0x14, 0x00, 0x00, 0x00, 0x1c, 0x00, 0x00, 0x00, 0x1c, 0x00, 0x00, 0x00,
  0x05, 0x00, 0x00, 0x00, 0x38, 0x00, 0x00, 0x00, 0x02, 0x00, 0x00, 0x00,
  0xff, 0xff, 0xff, 0xff, 0x02, 0x00, 0x00, 0x00, 0x98, 0xfe, 0xff, 0xff,
  0x1e, 0x00, 0x00, 0x00, 0x64, 0x65, 0x6e, 0x73, 0x65, 0x5f, 0x31, 0x5f,
  0x32, 0x2f, 0x4d, 0x61, 0x74, 0x4d, 0x75, 0x6c, 0x3b, 0x64, 0x65, 0x6e,
  0x73, 0x65, 0x5f, 0x31, 0x5f, 0x32, 0x2f, 0x41, 0x64, 0x64, 0x00, 0x00,
  0x02, 0x00, 0x00, 0x00, 0x01, 0x00, 0x00, 0x00, 0x02, 0x00, 0x00, 0x00,
  0x0a, 0xff, 0xff, 0xff, 0x00, 0x00, 0x00, 0x01, 0x14, 0x00, 0x00, 0x00,
  0x1c, 0x00, 0x00, 0x00, 0x1c, 0x00, 0x00, 0x00, 0x04, 0x00, 0x00, 0x00,
  0x40, 0x00, 0x00, 0x00, 0x02, 0x00, 0x00, 0x00, 0xff, 0xff, 0xff, 0xff,
  0x80, 0x00, 0x00, 0x00, 0xf4, 0xfe, 0xff, 0xff, 0x27, 0x00, 0x00, 0x00,
  0x64, 0x65, 0x6e, 0x73, 0x65, 0x5f, 0x31, 0x2f, 0x4d, 0x61, 0x74, 0x4d,
  0x75, 0x6c, 0x3b, 0x64, 0x65, 0x6e, 0x73, 0x65, 0x5f, 0x31, 0x2f, 0x52,
  0x65, 0x6c, 0x75, 0x3b, 0x64, 0x65, 0x6e, 0x73, 0x65, 0x5f, 0x31, 0x2f,
  0x41, 0x64, 0x64, 0x00, 0x02, 0x00, 0x00, 0x00, 0x01, 0x00, 0x00, 0x00,
  0x80, 0x00, 0x00, 0x00, 0xc2, 0xff, 0xff, 0xff, 0x00, 0x00, 0x00, 0x01,
  0x10, 0x00, 0x00, 0x00, 0x10, 0x00, 0x00, 0x00, 0x03, 0x00, 0x00, 0x00,
  0x1c, 0x00, 0x00, 0x00, 0x48, 0xff, 0xff, 0xff, 0x0e, 0x00, 0x00, 0x00,
  0x64, 0x65, 0x6e, 0x73, 0x65, 0x5f, 0x31, 0x2f, 0x4d, 0x61, 0x74, 0x4d,
  0x75, 0x6c, 0x00, 0x00, 0x02, 0x00, 0x00, 0x00, 0x80, 0x00, 0x00, 0x00,
  0x07, 0x00, 0x00, 0x00, 0x00, 0x00, 0x16, 0x00, 0x18, 0x00, 0x14, 0x00,
  0x00, 0x00, 0x10, 0x00, 0x0c, 0x00, 0x08, 0x00, 0x00, 0x00, 0x00, 0x00,
  0x00, 0x00, 0x07, 0x00, 0x16, 0x00, 0x00, 0x00, 0x00, 0x00, 0x00, 0x01,
  0x10, 0x00, 0x00, 0x00, 0x10, 0x00, 0x00, 0x00, 0x02, 0x00, 0x00, 0x00,
  0x1c, 0x00, 0x00, 0x00, 0x9c, 0xff, 0xff, 0xff, 0x0e, 0x00, 0x00, 0x00,
  0x61, 0x72, 0x69, 0x74, 0x68, 0x2e, 0x63, 0x6f, 0x6e, 0x73, 0x74, 0x61,
  0x6e, 0x74, 0x00, 0x00, 0x02, 0x00, 0x00, 0x00, 0x02, 0x00, 0x00, 0x00,
  0x80, 0x00, 0x00, 0x00, 0x00, 0x00, 0x16, 0x00, 0x1c, 0x00, 0x18, 0x00,
  0x00, 0x00, 0x14, 0x00, 0x10, 0x00, 0x0c, 0x00, 0x00, 0x00, 0x00, 0x00,
  0x08, 0x00, 0x07, 0x00, 0x16, 0x00, 0x00, 0x00, 0x00, 0x00, 0x00, 0x01,
  0x14, 0x00, 0x00, 0x00, 0x20, 0x00, 0x00, 0x00, 0x20, 0x00, 0x00, 0x00,
  0x01, 0x00, 0x00, 0x00, 0x20, 0x00, 0x00, 0x00, 0x02, 0x00, 0x00, 0x00,
  0xff, 0xff, 0xff, 0xff, 0x07, 0x00, 0x00, 0x00, 0x04, 0x00, 0x04, 0x00,
  0x04, 0x00, 0x00, 0x00, 0x01, 0x00, 0x00, 0x00, 0x78, 0x00, 0x00, 0x00,
  0x02, 0x00, 0x00, 0x00, 0x01, 0x00, 0x00, 0x00, 0x07, 0x00, 0x00, 0x00,
  0x02, 0x00, 0x00, 0x00, 0x20, 0x00, 0x00, 0x00, 0x04, 0x00, 0x00, 0x00,
  0xf4, 0xff, 0xff, 0xff, 0x19, 0x00, 0x00, 0x00, 0x00, 0x00, 0x00, 0x19,
  0x0c, 0x00, 0x0c, 0x00, 0x0b, 0x00, 0x00, 0x00, 0x00, 0x00, 0x04, 0x00,
  0x0c, 0x00, 0x00, 0x00, 0x09, 0x00, 0x00, 0x00, 0x00, 0x00, 0x00, 0x09
};
unsigned int g_model_len = 5868;
*/
