unsigned char g_model[] = {
  0x1c, 0x00, 0x00, 0x00, 0x54, 0x46, 0x4c, 0x33, 0x14, 0x00, 0x20, 0x00,
  0x1c, 0x00, 0x18, 0x00, 0x14, 0x00, 0x10, 0x00, 0x0c, 0x00, 0x00, 0x00,
  0x08, 0x00, 0x04, 0x00, 0x14, 0x00, 0x00, 0x00, 0x1c, 0x00, 0x00, 0x00,
  0x1c, 0x00, 0x00, 0x00, 0x74, 0x00, 0x00, 0x00, 0x74, 0x13, 0x00, 0x00,
  0x84, 0x13, 0x00, 0x00, 0x3c, 0x17, 0x00, 0x00, 0x03, 0x00, 0x00, 0x00,
  0x00, 0x00, 0x00, 0x00, 0x02, 0x00, 0x00, 0x00, 0x34, 0x00, 0x00, 0x00,
  0x04, 0x00, 0x00, 0x00, 0xdc, 0xff, 0xff, 0xff, 0x0a, 0x00, 0x00, 0x00,
  0x04, 0x00, 0x00, 0x00, 0x13, 0x00, 0x00, 0x00, 0x43, 0x4f, 0x4e, 0x56,
  0x45, 0x52, 0x53, 0x49, 0x4f, 0x4e, 0x5f, 0x4d, 0x45, 0x54, 0x41, 0x44,
  0x41, 0x54, 0x41, 0x00, 0x08, 0x00, 0x0c, 0x00, 0x08, 0x00, 0x04, 0x00,
  0x08, 0x00, 0x00, 0x00, 0x09, 0x00, 0x00, 0x00, 0x04, 0x00, 0x00, 0x00,
  0x13, 0x00, 0x00, 0x00, 0x6d, 0x69, 0x6e, 0x5f, 0x72, 0x75, 0x6e, 0x74,
  0x69, 0x6d, 0x65, 0x5f, 0x76, 0x65, 0x72, 0x73, 0x69, 0x6f, 0x6e, 0x00,
  0x0b, 0x00, 0x00, 0x00, 0xfc, 0x12, 0x00, 0x00, 0xf4, 0x12, 0x00, 0x00,
  0xe4, 0x0e, 0x00, 0x00, 0xcc, 0x0e, 0x00, 0x00, 0xbc, 0x0c, 0x00, 0x00,
  0xac, 0x00, 0x00, 0x00, 0xa4, 0x00, 0x00, 0x00, 0x9c, 0x00, 0x00, 0x00,
  0x94, 0x00, 0x00, 0x00, 0x74, 0x00, 0x00, 0x00, 0x04, 0x00, 0x00, 0x00,
  0xa2, 0xec, 0xff, 0xff, 0x04, 0x00, 0x00, 0x00, 0x60, 0x00, 0x00, 0x00,
  0x10, 0x00, 0x00, 0x00, 0x00, 0x00, 0x00, 0x00, 0x08, 0x00, 0x0e, 0x00,
  0x08, 0x00, 0x04, 0x00, 0x08, 0x00, 0x00, 0x00, 0x10, 0x00, 0x00, 0x00,
  0x24, 0x00, 0x00, 0x00, 0x00, 0x00, 0x06, 0x00, 0x08, 0x00, 0x04, 0x00,
  0x06, 0x00, 0x00, 0x00, 0x04, 0x00, 0x00, 0x00, 0x00, 0x00, 0x00, 0x00,
  0x0c, 0x00, 0x18, 0x00, 0x14, 0x00, 0x10, 0x00, 0x0c, 0x00, 0x04, 0x00,
  0x0c, 0x00, 0x00, 0x00, 0x81, 0xb3, 0xcf, 0xc4, 0x27, 0x8d, 0xb7, 0x59,
  0x03, 0x00, 0x00, 0x00, 0x02, 0x00, 0x00, 0x00, 0x04, 0x00, 0x00, 0x00,
  0x06, 0x00, 0x00, 0x00, 0x32, 0x2e, 0x31, 0x37, 0x2e, 0x30, 0x00, 0x00,
  0x0e, 0xed, 0xff, 0xff, 0x04, 0x00, 0x00, 0x00, 0x10, 0x00, 0x00, 0x00,
  0x31, 0x2e, 0x35, 0x2e, 0x30, 0x00, 0x00, 0x00, 0x00, 0x00, 0x00, 0x00,
  0x00, 0x00, 0x00, 0x00, 0x00, 0xea, 0xff, 0xff, 0x04, 0xea, 0xff, 0xff,
  0x08, 0xea, 0xff, 0xff, 0x36, 0xed, 0xff, 0xff, 0x04, 0x00, 0x00, 0x00,
  0x00, 0x0c, 0x00, 0x00, 0xc5, 0x21, 0x50, 0xbd, 0x6e, 0x57, 0xe4, 0x3d,
  0x50, 0x0e, 0x18, 0xbe, 0x49, 0xa2, 0x38, 0xbe, 0x43, 0x81, 0x21, 0xbe,
  0xd8, 0xc0, 0x74, 0xbe, 0x6f, 0x01, 0x0a, 0xbe, 0x3f, 0x15, 0x77, 0xbd,
  0xf3, 0xc6, 0x58, 0xbd, 0xb6, 0xcb, 0x8c, 0xbd, 0xe1, 0x12, 0x7a, 0x3d,
  0xbb, 0x08, 0x56, 0xbe, 0x88, 0xb7, 0x28, 0x3e, 0xf8, 0xa8, 0xd7, 0xbb,
  0x57, 0xd0, 0x1e, 0xbe, 0x47, 0x76, 0x09, 0x3e, 0xb3, 0x27, 0x71, 0xbe,
  0x5b, 0x5e, 0x59, 0xbe, 0x06, 0x56, 0xc1, 0x3b, 0xd2, 0xfe, 0x8c, 0xbd,
  0x7d, 0xff, 0xea, 0xbd, 0xad, 0xd9, 0x37, 0x3e, 0xee, 0x0c, 0x0d, 0x3e,
  0xf8, 0xed, 0x95, 0x3d, 0xe9, 0xe6, 0x4a, 0x3d, 0x54, 0x9f, 0x4b, 0x3e,
  0x39, 0xc7, 0x42, 0x3e, 0x36, 0x3e, 0x31, 0xbe, 0xb3, 0xdc, 0xbc, 0xbd,
  0xec, 0x3f, 0x8f, 0xbb, 0xaa, 0x38, 0x25, 0x3e, 0x19, 0x12, 0x56, 0xbe,
  0x17, 0x6a, 0xfc, 0x3d, 0xac, 0x84, 0x68, 0x3d, 0x47, 0xee, 0xe9, 0xbd,
  0xea, 0x82, 0x29, 0xbe, 0x7c, 0x6c, 0xa1, 0xbd, 0x40, 0x74, 0xa8, 0xbd,
  0x38, 0xa1, 0xa3, 0xbd, 0xee, 0x59, 0xa5, 0xbd, 0x98, 0xc1, 0xa1, 0xbd,
  0x70, 0x76, 0xbe, 0xb9, 0x1f, 0xbc, 0xda, 0xbd, 0x55, 0xf5, 0x12, 0x3e,
  0x4c, 0xce, 0x0f, 0x3e, 0x30, 0xf4, 0xa3, 0xbd, 0xf8, 0x76, 0xdf, 0xbd,
  0xfb, 0xae, 0xf2, 0x3d, 0x71, 0x32, 0xb9, 0xbd, 0x82, 0xa9, 0x00, 0xbe,
  0x8f, 0x1c, 0x26, 0xbe, 0x8a, 0xb0, 0xca, 0x3d, 0xf0, 0xc7, 0x65, 0x3d,
  0xcc, 0x6b, 0x19, 0x3e, 0xc8, 0x84, 0xa5, 0xbd, 0xe7, 0xad, 0xcd, 0xbb,
  0x69, 0x90, 0x04, 0x3e, 0xae, 0x71, 0x5d, 0xbe, 0x97, 0x10, 0x7e, 0xbe,
  0xa3, 0x6c, 0xce, 0x3d, 0xbc, 0xd3, 0x2b, 0x3e, 0xf8, 0x52, 0x7c, 0xbe,
  0xb6, 0x88, 0xae, 0x3d, 0x35, 0x9a, 0x33, 0x3e, 0xa0, 0xcd, 0xfc, 0x3d,
  0xf3, 0x4d, 0xd5, 0xbd, 0x8a, 0xb6, 0x9f, 0x3d, 0xb4, 0x9a, 0xb4, 0x3d,
  0x5f, 0x28, 0xce, 0x3d, 0xdc, 0xeb, 0x26, 0xbe, 0xaa, 0x65, 0x73, 0xbe,
  0x99, 0x62, 0x87, 0x3e, 0xb2, 0x40, 0x6d, 0x3d, 0x2f, 0x65, 0x00, 0x3e,
  0x19, 0xbb, 0xa8, 0xbd, 0x8a, 0x55, 0x12, 0x3d, 0x94, 0x68, 0x01, 0x3e,
  0x75, 0x0b, 0xfb, 0xbc, 0x60, 0x2b, 0xea, 0x3b, 0x9c, 0x88, 0x36, 0x3d,
  0x09, 0x86, 0xe7, 0xbd, 0xdf, 0x88, 0x2d, 0xbe, 0xc8, 0x97, 0xf6, 0xbd,
  0xd8, 0x3e, 0x55, 0xbd, 0xd4, 0x02, 0x1b, 0x3d, 0x1a, 0x3f, 0x13, 0x3e,
  0xe3, 0x28, 0x7d, 0xbd, 0xe6, 0xf9, 0x4f, 0xbe, 0x04, 0xbb, 0x3a, 0x3d,
  0x5c, 0xb4, 0x59, 0x3d, 0xb6, 0x2f, 0x1d, 0x3c, 0x5c, 0x7a, 0x35, 0xbc,
  0xe6, 0x55, 0xf6, 0xbc, 0xa9, 0x62, 0x38, 0x3d, 0x20, 0x28, 0xaa, 0xbc,
  0xe1, 0x8d, 0x88, 0x3d, 0xd5, 0x21, 0x07, 0x3e, 0x0a, 0xf8, 0xb9, 0x3d,
  0xf4, 0x61, 0x80, 0x3c, 0xae, 0x86, 0x7a, 0x3d, 0x35, 0xc9, 0x0b, 0xbd,
  0x28, 0x5a, 0x0f, 0xbd, 0x39, 0xdd, 0x23, 0x3e, 0xdd, 0xe7, 0x06, 0x3e,
  0xe4, 0x91, 0x25, 0xbe, 0x32, 0x3b, 0xb1, 0xbd, 0xb7, 0x5a, 0x42, 0xbd,
  0x08, 0x2e, 0xf0, 0xbb, 0x9d, 0xe5, 0x92, 0xbc, 0xe0, 0xad, 0x31, 0xbc,
  0x0c, 0xb9, 0xd0, 0x3c, 0x84, 0x1e, 0x66, 0xbe, 0x3c, 0x79, 0x7e, 0xbe,
  0x4a, 0xff, 0x40, 0xbd, 0xf0, 0x60, 0x82, 0xbd, 0xd1, 0xd5, 0x7c, 0x3c,
  0x24, 0x4b, 0x24, 0xbe, 0x76, 0xf6, 0xa8, 0x3d, 0x94, 0x75, 0x26, 0xbe,
  0x4d, 0x76, 0x6d, 0x3e, 0xb7, 0x24, 0xac, 0x3d, 0xfd, 0x8e, 0x93, 0xbc,
  0xeb, 0x61, 0x09, 0x3d, 0x85, 0x44, 0x22, 0x3e, 0x20, 0xf2, 0x47, 0x3d,
  0x83, 0xac, 0x13, 0x3e, 0xc3, 0xc5, 0x02, 0xbe, 0x1e, 0xbb, 0x18, 0xbe,
  0x8b, 0xdf, 0xc6, 0x3d, 0x36, 0x0c, 0xc0, 0x3d, 0xfa, 0x58, 0x30, 0xbe,
  0x3b, 0xd5, 0x4f, 0x3e, 0x51, 0x10, 0x17, 0xbe, 0x08, 0xc5, 0x2a, 0xbe,
  0x2f, 0x0e, 0xc9, 0xbd, 0xa5, 0x88, 0xa8, 0x3d, 0x8e, 0x7a, 0x8b, 0xbd,
  0x42, 0x8b, 0x0d, 0x3e, 0x29, 0x04, 0x23, 0xbe, 0x9b, 0x4f, 0xd2, 0xbd,
  0xe7, 0x53, 0x27, 0x3d, 0xa3, 0x3b, 0x29, 0x3d, 0x5a, 0xb6, 0x16, 0xbe,
  0x8d, 0xb8, 0x93, 0x3d, 0x86, 0x0d, 0x7d, 0x3e, 0xc5, 0x7f, 0x61, 0xbc,
  0x87, 0x77, 0x1c, 0xbd, 0x09, 0xfe, 0x41, 0xbe, 0xd7, 0x2d, 0xa7, 0xbd,
  0xbd, 0x83, 0xb5, 0x3c, 0x06, 0x03, 0xb3, 0x3d, 0x7d, 0x74, 0x50, 0x3e,
  0xca, 0x59, 0xc2, 0xbd, 0xf6, 0xed, 0x19, 0x3e, 0x19, 0x9b, 0x21, 0x3e,
  0xac, 0x6f, 0x5f, 0x3e, 0xb7, 0xfd, 0xa3, 0x3d, 0xdf, 0x93, 0x32, 0xbe,
  0x97, 0x59, 0x9e, 0xbd, 0x20, 0x61, 0x45, 0xbe, 0xbb, 0xf4, 0xd8, 0x3d,
  0xec, 0x09, 0x85, 0xbd, 0x8d, 0xdd, 0xb2, 0x3d, 0x76, 0x98, 0xe2, 0xbc,
  0xb6, 0xc8, 0x1a, 0x3e, 0xb1, 0xc9, 0xe9, 0x3d, 0x5e, 0xdd, 0xa1, 0xbd,
  0x0d, 0xab, 0x30, 0xbb, 0x8a, 0x36, 0xe0, 0x3d, 0x34, 0x0c, 0x01, 0xbe,
  0x22, 0xd6, 0x98, 0xbd, 0x7f, 0x61, 0xca, 0xbd, 0x8d, 0x49, 0xc0, 0xbd,
  0x0c, 0xff, 0xab, 0xbd, 0x48, 0x56, 0xaf, 0x3d, 0x8d, 0x61, 0xd3, 0x3d,
  0xe1, 0x52, 0x95, 0x3d, 0xfb, 0x07, 0x63, 0xbd, 0xa6, 0x3a, 0x46, 0x3e,
  0x1b, 0xc5, 0x6c, 0x3e, 0x5b, 0x80, 0x57, 0xbe, 0xf4, 0xa2, 0xc7, 0xbc,
  0xee, 0xa5, 0x48, 0x3e, 0x7c, 0x60, 0xd4, 0x3d, 0xa2, 0x7c, 0x44, 0x3e,
  0xdc, 0x0b, 0xeb, 0xbd, 0x96, 0x41, 0x83, 0x3d, 0xed, 0xa4, 0x55, 0xbe,
  0x7e, 0x80, 0xcc, 0x3d, 0x18, 0x2e, 0x94, 0xbc, 0x25, 0x19, 0xe0, 0xbd,
  0x18, 0xc7, 0xe8, 0x3c, 0x7d, 0xa4, 0x10, 0x3e, 0x62, 0x12, 0x7a, 0x3d,
  0x34, 0x77, 0x23, 0xbc, 0xe7, 0x27, 0xf2, 0x3d, 0x39, 0xed, 0x47, 0xbe,
  0x83, 0x9b, 0x01, 0x3e, 0x72, 0x5e, 0xf1, 0x3c, 0x4d, 0x39, 0xb0, 0x3d,
  0xe4, 0xfb, 0x16, 0x3e, 0x0f, 0x1c, 0xae, 0xbd, 0xfb, 0xe2, 0x6e, 0xbe,
  0xf9, 0xc4, 0x63, 0x3e, 0x58, 0x29, 0x35, 0x3e, 0xbd, 0xff, 0xd9, 0x3d,
  0x5a, 0x4d, 0x36, 0xbd, 0x1c, 0x6a, 0x54, 0xbe, 0x35, 0x4f, 0x0e, 0x3e,
  0xc5, 0xee, 0xa0, 0xbc, 0x71, 0xda, 0x9f, 0xbd, 0xdd, 0x1c, 0x16, 0xbc,
  0x91, 0x25, 0x9b, 0x3d, 0xb4, 0x8c, 0x7f, 0x3c, 0x95, 0x32, 0xdb, 0x3d,
  0x06, 0x5c, 0x06, 0x3e, 0x00, 0x9b, 0xaa, 0x3c, 0x5f, 0x7d, 0x43, 0xbe,
  0x29, 0x5a, 0x40, 0xbe, 0x30, 0x7c, 0x0b, 0xbe, 0x6b, 0x66, 0x98, 0xbd,
  0x30, 0xd7, 0x95, 0x3d, 0xb6, 0xba, 0xa2, 0xbd, 0xf0, 0x07, 0x4f, 0x3d,
  0x22, 0xe8, 0x18, 0xbe, 0x7c, 0xb6, 0x39, 0x3d, 0x00, 0xba, 0x57, 0xbd,
  0x42, 0x0f, 0x75, 0xbd, 0x85, 0x49, 0xff, 0x3d, 0xb5, 0x8f, 0xdb, 0x3d,
  0xdc, 0xfc, 0x3d, 0x3e, 0xd0, 0xde, 0x6b, 0xbd, 0x92, 0x50, 0xf8, 0xbc,
  0xbd, 0x91, 0x2a, 0x3e, 0xbb, 0x7d, 0x26, 0x3e, 0x9b, 0xc7, 0x25, 0x3e,
  0xf2, 0x03, 0xcb, 0xbd, 0x02, 0x14, 0xff, 0xbd, 0xcf, 0x3c, 0x4c, 0xbe,
  0x13, 0xfe, 0x42, 0xbe, 0xf0, 0x32, 0x8b, 0x3d, 0x5d, 0xdc, 0x29, 0x3e,
  0x1c, 0xd6, 0x0a, 0x3e, 0xc4, 0x38, 0x92, 0xbd, 0x9c, 0x78, 0x2d, 0xbd,
  0x3e, 0xce, 0x76, 0xbd, 0x88, 0x37, 0x97, 0x3d, 0x01, 0xef, 0x4d, 0xbd,
  0xea, 0x42, 0x43, 0x3e, 0xa0, 0x7d, 0xcd, 0x3c, 0x70, 0x85, 0x8d, 0x3c,
  0x27, 0xff, 0xad, 0x3c, 0x4f, 0x6b, 0xda, 0xbd, 0x8b, 0xba, 0x34, 0xbe,
  0x6c, 0x96, 0x20, 0x3e, 0x05, 0xed, 0x6b, 0xbe, 0xfd, 0x23, 0x22, 0x3d,
  0x5b, 0x5e, 0x15, 0x3e, 0x17, 0x4e, 0x52, 0x3d, 0x4f, 0xa7, 0x36, 0x3e,
  0x33, 0x60, 0xdc, 0x3d, 0x66, 0xe4, 0x67, 0xbe, 0x92, 0x58, 0x3e, 0x3e,
  0x47, 0x71, 0x23, 0xbd, 0xd2, 0x9c, 0xf9, 0x3d, 0x95, 0x97, 0xe4, 0xbd,
  0xf8, 0x18, 0x99, 0xbd, 0xbc, 0xd5, 0x4a, 0xbe, 0x60, 0x68, 0xd8, 0xbb,
  0x29, 0x94, 0x08, 0x3e, 0xdf, 0x13, 0x13, 0x3e, 0x0d, 0x10, 0xe8, 0xbd,
  0x40, 0x34, 0x03, 0xbc, 0x64, 0xa9, 0x77, 0x3d, 0x3e, 0x11, 0x99, 0x3d,
  0x36, 0x81, 0x19, 0xbe, 0xe8, 0x04, 0xec, 0xbd, 0x81, 0xc2, 0xf0, 0xbd,
  0xe8, 0xdd, 0x6a, 0x3d, 0x8f, 0x0c, 0xf4, 0xbd, 0x84, 0xf4, 0x2c, 0x3a,
  0x68, 0x97, 0xa7, 0x3d, 0xd7, 0x92, 0x4b, 0x3d, 0xf0, 0xb6, 0xfc, 0x3d,
  0x51, 0x09, 0x3f, 0xbe, 0x6b, 0x6a, 0x19, 0x3e, 0xbe, 0xc0, 0x58, 0xbe,
  0xb2, 0xb6, 0x37, 0xbc, 0x2c, 0x21, 0xc0, 0xbd, 0x58, 0xf5, 0x49, 0xbb,
  0xc1, 0xac, 0x8d, 0xbd, 0x0e, 0x75, 0xd7, 0xbb, 0x00, 0xc4, 0x93, 0x3d,
  0x96, 0x70, 0x20, 0xbd, 0x85, 0xb3, 0x24, 0x3e, 0xf1, 0x92, 0xed, 0x3d,
  0x0c, 0x15, 0x3a, 0x3e, 0x4a, 0xa2, 0xd3, 0xbd, 0x5a, 0x1c, 0x35, 0x3e,
  0x4f, 0x6e, 0x3e, 0xbe, 0x8b, 0xb2, 0x15, 0xbe, 0xc2, 0x2f, 0xe4, 0xbd,
  0x70, 0x3c, 0xce, 0xbc, 0xc5, 0xdf, 0x40, 0xbe, 0xc7, 0x5f, 0x1b, 0xbd,
  0x53, 0xc6, 0xf6, 0x3d, 0xd8, 0xe7, 0x18, 0x3e, 0x05, 0xe3, 0x45, 0xbe,
  0x92, 0x0e, 0x20, 0xbe, 0xb9, 0x22, 0xf4, 0x3d, 0xbf, 0xac, 0x37, 0x3e,
  0x8c, 0xc1, 0x50, 0x3e, 0x43, 0x33, 0x08, 0xbe, 0x4f, 0xaa, 0x62, 0xbe,
  0x4a, 0x6e, 0x08, 0xbe, 0x02, 0x3b, 0x4d, 0xbd, 0x00, 0xb8, 0x65, 0xbe,
  0xcf, 0x8c, 0xf5, 0xbc, 0x10, 0xac, 0xf0, 0x3d, 0x92, 0x1b, 0xc4, 0x3d,
  0xc1, 0x3f, 0x48, 0xbe, 0x1d, 0x3a, 0x4f, 0xbe, 0xe1, 0x0e, 0xb9, 0xbd,
  0xd7, 0x21, 0x5e, 0xbe, 0xac, 0x73, 0x60, 0x3d, 0xe2, 0xc7, 0x82, 0xbd,
  0xb0, 0x40, 0xe0, 0xbd, 0x63, 0x61, 0x4a, 0x3e, 0xc0, 0x37, 0xc4, 0x3b,
  0x28, 0x76, 0x13, 0xbd, 0x1a, 0xde, 0x4d, 0x3d, 0xde, 0xb2, 0x47, 0x3e,
  0x2d, 0x7d, 0x0c, 0xbe, 0xa2, 0x2e, 0x2f, 0x3d, 0x84, 0x2a, 0x02, 0x3e,
  0xe9, 0xa4, 0xac, 0x3d, 0xcc, 0x7f, 0x07, 0xbe, 0xfb, 0x93, 0x2f, 0x3e,
  0x76, 0x4f, 0x01, 0xbc, 0x3c, 0x44, 0x7d, 0x3c, 0x6a, 0x9f, 0x27, 0x3e,
  0x14, 0x18, 0x04, 0xbe, 0xc3, 0x65, 0xe5, 0x3c, 0xb8, 0x47, 0x54, 0x3e,
  0x8b, 0xf2, 0xc4, 0x3d, 0x8b, 0x65, 0x89, 0xbd, 0x8c, 0x2e, 0x29, 0x3e,
  0x4c, 0xca, 0x99, 0xbd, 0xfb, 0xe6, 0xb0, 0x3c, 0xec, 0xa3, 0x19, 0xbe,
  0x78, 0x60, 0x1b, 0xbe, 0xfe, 0xf9, 0x5f, 0xbd, 0x0e, 0x67, 0x42, 0xbe,
  0x41, 0x5e, 0x13, 0xbe, 0xd2, 0x0a, 0xb0, 0x3d, 0xea, 0x8b, 0x35, 0xbb,
  0x90, 0x87, 0xc5, 0x3c, 0xa0, 0x16, 0x20, 0xbe, 0x24, 0xf4, 0x10, 0xbe,
  0x29, 0xc7, 0x21, 0x3e, 0x2a, 0x08, 0xe9, 0x3d, 0xe4, 0x59, 0x32, 0x3e,
  0xb9, 0x67, 0x21, 0x3d, 0x86, 0xbc, 0xed, 0xbd, 0x9c, 0x50, 0x72, 0xbe,
  0x9b, 0x74, 0x41, 0xbe, 0x9f, 0xb4, 0xf9, 0xbc, 0x05, 0x90, 0x28, 0x3d,
  0x1e, 0x70, 0x2f, 0x3e, 0x1c, 0xc4, 0x23, 0xbe, 0xf9, 0xe2, 0x23, 0x3e,
  0x38, 0x5f, 0xb7, 0xbd, 0x1a, 0xca, 0x12, 0xbe, 0x24, 0xe5, 0x3a, 0x3e,
  0x5c, 0x5d, 0x25, 0x3e, 0xa0, 0x55, 0x09, 0xbd, 0xdc, 0x3e, 0x2d, 0x3e,
  0x6c, 0xed, 0x50, 0xbd, 0x3a, 0xb0, 0x60, 0x3e, 0x65, 0xef, 0xeb, 0x3d,
  0x3a, 0xec, 0x67, 0xbd, 0xc1, 0xbb, 0x00, 0x3e, 0x10, 0x2d, 0x13, 0x3e,
  0x5a, 0x49, 0x04, 0xbd, 0xb7, 0xcf, 0x15, 0xbe, 0x92, 0xef, 0x7c, 0x3b,
  0x7e, 0x39, 0x80, 0xbe, 0xac, 0xca, 0x03, 0x3d, 0x8a, 0x4c, 0x4f, 0xbc,
  0x1a, 0xf5, 0xd0, 0x3d, 0xf7, 0xd8, 0xb6, 0xbd, 0x5f, 0x8d, 0x20, 0x3d,
  0x25, 0x50, 0x1a, 0x3e, 0xdc, 0xea, 0xc6, 0x3c, 0x78, 0xed, 0x54, 0xbd,
  0x62, 0x23, 0x36, 0xbe, 0x5c, 0xdc, 0x67, 0xbd, 0x66, 0x78, 0x56, 0xbd,
  0x14, 0xce, 0x6a, 0xbc, 0x5d, 0x6d, 0x70, 0x3d, 0xe9, 0xad, 0x14, 0x3d,
  0xb3, 0xd3, 0x56, 0xbd, 0x5c, 0x80, 0x14, 0x3e, 0x4d, 0xa0, 0x32, 0x3e,
  0x18, 0xc1, 0xbf, 0xbd, 0x80, 0xcf, 0xa0, 0xbc, 0x06, 0x7a, 0x83, 0xbd,
  0x69, 0x23, 0x02, 0x3e, 0x19, 0xf6, 0xa1, 0xbd, 0x98, 0x45, 0x10, 0x3e,
  0xa2, 0x3c, 0x86, 0xbd, 0xd2, 0xdc, 0x6e, 0xbe, 0xd3, 0x9a, 0x50, 0xbc,
  0xc3, 0xa8, 0xb0, 0x3c, 0xc0, 0xa2, 0xda, 0x3c, 0xb4, 0xe9, 0x27, 0xbe,
  0xb9, 0x34, 0xc3, 0xbd, 0x53, 0x1f, 0x13, 0x3e, 0xa6, 0xef, 0x86, 0x3c,
  0x86, 0x54, 0x88, 0x3e, 0x9f, 0x8c, 0x25, 0xbe, 0x14, 0x6a, 0x1f, 0xbd,
  0x20, 0x9b, 0x72, 0x3d, 0x71, 0xfe, 0x31, 0x3e, 0x2c, 0x9d, 0xf4, 0xbb,
  0xf7, 0x92, 0x66, 0x3e, 0x6a, 0x69, 0xfe, 0x3b, 0xe6, 0xfe, 0x91, 0x3a,
  0x6a, 0x22, 0x50, 0xbd, 0x2c, 0x75, 0xca, 0xbd, 0xd8, 0x7e, 0x01, 0x3e,
  0xa0, 0x5e, 0x33, 0xbd, 0x97, 0x0b, 0x3e, 0xbe, 0xd0, 0x00, 0x96, 0x3d,
  0x50, 0x72, 0x1c, 0xbc, 0xeb, 0x22, 0xae, 0xbd, 0x6b, 0xa7, 0x0b, 0x3c,
  0xff, 0x0f, 0x6c, 0x3e, 0x1c, 0x25, 0xdd, 0x3c, 0xcd, 0x89, 0x84, 0xbe,
  0x91, 0x78, 0xa2, 0xbc, 0xc2, 0x5c, 0x06, 0x3e, 0x4f, 0x7c, 0x63, 0xbe,
  0x92, 0x16, 0xea, 0x3b, 0x00, 0xca, 0xd2, 0xbc, 0xd0, 0x08, 0x41, 0x3e,
  0x5a, 0xaf, 0x53, 0xbe, 0xe3, 0xd6, 0xc1, 0x3d, 0xde, 0xfe, 0x4d, 0x3e,
  0x98, 0x1f, 0xb7, 0x3d, 0x14, 0xe2, 0x82, 0xbd, 0x61, 0xe1, 0x93, 0x3d,
  0x21, 0xcf, 0x56, 0x3e, 0xc4, 0x62, 0xbd, 0xbd, 0xf8, 0xfd, 0xf9, 0xbd,
  0x13, 0xa2, 0x31, 0xbd, 0x4e, 0x95, 0x7b, 0x3c, 0xb8, 0x2c, 0x7f, 0xbd,
  0x2c, 0xc2, 0x40, 0x3d, 0x31, 0x3e, 0xdf, 0x3d, 0xe9, 0x0d, 0xcf, 0x3d,
  0xb4, 0x75, 0x52, 0x3d, 0xb9, 0xaa, 0x44, 0xbe, 0x4c, 0x91, 0x5b, 0xbe,
  0xce, 0x5c, 0x2a, 0x3e, 0xb2, 0x9d, 0x13, 0x3d, 0x65, 0xd1, 0xbe, 0x3d,
  0x09, 0xa6, 0x30, 0xbb, 0x66, 0x6c, 0x99, 0xbd, 0x0e, 0x98, 0x87, 0x3d,
  0x91, 0x79, 0x00, 0xbd, 0xd8, 0x34, 0x0b, 0xbe, 0x98, 0x20, 0x26, 0xbd,
  0x0c, 0xb5, 0x9a, 0xbd, 0x24, 0xb0, 0x02, 0xbe, 0x79, 0x0b, 0x80, 0xbe,
  0x01, 0x00, 0x63, 0x3d, 0x04, 0x98, 0x13, 0x3c, 0x18, 0xc6, 0xba, 0xbd,
  0x80, 0x89, 0x93, 0x3d, 0x5b, 0x8b, 0xd6, 0x3d, 0xcd, 0x1a, 0x43, 0xbd,
  0x91, 0xcd, 0x52, 0xbe, 0x00, 0x88, 0x3b, 0xbe, 0x35, 0x81, 0x16, 0xbb,
  0x26, 0x4c, 0x71, 0x3e, 0xa3, 0x7a, 0x9e, 0x3d, 0x14, 0x58, 0xd1, 0x3c,
  0x01, 0xf4, 0x36, 0xbe, 0xfd, 0x68, 0x6b, 0xbe, 0x29, 0x0e, 0x39, 0xbe,
  0xf7, 0x31, 0x6d, 0xbe, 0xd9, 0xb3, 0x0d, 0xbc, 0x56, 0x28, 0x23, 0x3e,
  0x59, 0x57, 0xf1, 0xbb, 0xba, 0xf5, 0x83, 0x3d, 0x0a, 0xa9, 0x56, 0xbd,
  0x10, 0x0d, 0x94, 0x39, 0xcc, 0xd5, 0x6d, 0x3d, 0x68, 0x41, 0x06, 0xbd,
  0xf4, 0x9b, 0x6e, 0xbd, 0xab, 0x6c, 0x56, 0x3e, 0xa0, 0x0b, 0x03, 0x3c,
  0x41, 0xfb, 0x18, 0x3e, 0x5d, 0x16, 0xe9, 0xbc, 0xd7, 0x28, 0xcc, 0xbd,
  0x94, 0x5d, 0x47, 0xbe, 0x77, 0x8f, 0x1e, 0x3d, 0x6c, 0xac, 0xfc, 0xbd,
  0x5b, 0xac, 0xcb, 0xbd, 0x9d, 0xf0, 0x83, 0xbd, 0xba, 0x77, 0xf7, 0xbd,
  0x82, 0x22, 0xcd, 0x3d, 0x9b, 0x31, 0x28, 0xbd, 0x7c, 0x20, 0x42, 0xbe,
  0xaf, 0x05, 0x5e, 0xbe, 0x99, 0xcb, 0x23, 0x3e, 0xac, 0x72, 0xa3, 0xbd,
  0xe4, 0xa2, 0x22, 0xbe, 0x56, 0x20, 0x8b, 0xbd, 0x6f, 0xed, 0x3b, 0xbe,
  0xf0, 0x42, 0xc6, 0x3c, 0xa4, 0x62, 0xb2, 0xbd, 0xcf, 0xf2, 0xae, 0x3d,
  0x02, 0x25, 0x61, 0x3d, 0x66, 0x19, 0x42, 0xbc, 0x76, 0xea, 0x7c, 0xbd,
  0xf8, 0xde, 0x82, 0x3e, 0xd4, 0xff, 0x78, 0xbd, 0x62, 0x83, 0x2b, 0xbe,
  0xd8, 0x65, 0xe1, 0x3d, 0xb4, 0xff, 0xd8, 0xbd, 0x55, 0xe6, 0xbb, 0x3d,
  0x23, 0x33, 0x06, 0x3e, 0x1d, 0x19, 0xa1, 0x3d, 0xcd, 0xde, 0x39, 0xbd,
  0x45, 0xa4, 0x0b, 0xbe, 0xef, 0x7d, 0x56, 0x3e, 0x5e, 0x53, 0xf9, 0xbc,
  0x3a, 0xb9, 0x8f, 0xbd, 0x21, 0x8e, 0xc3, 0x3d, 0x24, 0xcd, 0xef, 0xbd,
  0x8e, 0x1f, 0xf7, 0xbd, 0xc6, 0xa6, 0x96, 0x3c, 0x2a, 0x06, 0xe2, 0xbd,
  0xc8, 0x29, 0x28, 0x3d, 0xc5, 0x07, 0x17, 0xbd, 0xf1, 0xaa, 0xfa, 0xbd,
  0x4f, 0x41, 0x99, 0x3d, 0xc8, 0x50, 0x12, 0xbd, 0xc0, 0x4d, 0xa1, 0xbd,
  0x15, 0xf3, 0x6a, 0x3e, 0x42, 0x6f, 0x50, 0xbe, 0xe4, 0xa9, 0x35, 0x3d,
  0x9b, 0xa9, 0x6a, 0xbc, 0x28, 0xed, 0x57, 0x3d, 0xdb, 0xf1, 0x6f, 0x3d,
  0x84, 0x1c, 0x1c, 0xbe, 0x3c, 0x3d, 0xac, 0x3d, 0x4d, 0xb6, 0x7c, 0x3d,
  0xed, 0x29, 0xf3, 0x3b, 0xba, 0x09, 0xc5, 0xbc, 0x23, 0x84, 0x2e, 0x3d,
  0xb7, 0x0c, 0x6b, 0xbd, 0x9b, 0x49, 0x8d, 0xbd, 0xee, 0xc4, 0xc1, 0xbb,
  0x37, 0xbd, 0x29, 0x3e, 0x64, 0x22, 0x0c, 0x3e, 0x85, 0x69, 0x9f, 0xbd,
  0xa3, 0xe0, 0x05, 0xbe, 0x41, 0xbe, 0x3a, 0xbe, 0xd5, 0x4e, 0xc4, 0x3d,
  0x52, 0x58, 0x58, 0xbc, 0x7c, 0x39, 0x3c, 0xbe, 0xa7, 0x00, 0x3f, 0xbe,
  0xcb, 0x07, 0x35, 0xbe, 0x90, 0xdb, 0x16, 0x3c, 0x66, 0xb9, 0xa3, 0xbd,
  0x98, 0x4e, 0x78, 0xbd, 0x8c, 0x99, 0x88, 0xbd, 0xf1, 0x98, 0x42, 0xbc,
  0xee, 0xd0, 0xf3, 0x3d, 0xbe, 0x0b, 0xaf, 0xbd, 0xd5, 0xd4, 0x46, 0x3e,
  0xa8, 0xe4, 0x1f, 0x3e, 0x66, 0xd6, 0xc5, 0xbc, 0x8f, 0x0c, 0x53, 0x3e,
  0x47, 0x4d, 0x51, 0xbd, 0x0f, 0xfa, 0x7d, 0x3d, 0x06, 0x0a, 0xcf, 0xbd,
  0xc5, 0xa0, 0x48, 0xbd, 0x81, 0xf5, 0x13, 0x3e, 0x24, 0xfd, 0x27, 0xbe,
  0x53, 0xdc, 0xef, 0x3d, 0xa1, 0xae, 0x9a, 0x3d, 0x92, 0x0d, 0xc9, 0x3c,
  0x24, 0x6f, 0x45, 0x3d, 0x9c, 0x88, 0x33, 0xbd, 0x88, 0x32, 0x4e, 0xbd,
  0xc0, 0xa3, 0x82, 0x3e, 0x68, 0xb2, 0xae, 0xbd, 0xcd, 0x20, 0x9d, 0xbc,
  0x32, 0xef, 0x37, 0x3e, 0x31, 0x34, 0xd7, 0xbd, 0x91, 0x66, 0x03, 0xbd,
  0x37, 0xda, 0xb8, 0x3d, 0x80, 0x08, 0x5f, 0xbc, 0x84, 0x76, 0x29, 0xbe,
  0x4f, 0xb4, 0x57, 0xbe, 0xe8, 0x07, 0x35, 0xbe, 0x58, 0xad, 0x58, 0x3d,
  0x95, 0x61, 0x12, 0xbe, 0x1b, 0xb7, 0xf3, 0x3d, 0x79, 0x90, 0x51, 0x3e,
  0xdb, 0xcf, 0xd1, 0xbd, 0xa2, 0x71, 0x91, 0xbd, 0xb4, 0xd5, 0x80, 0x3b,
  0x35, 0xe6, 0xaa, 0x3d, 0xc9, 0xbd, 0xbb, 0xbd, 0x80, 0x9a, 0xc9, 0x3b,
  0x18, 0xb3, 0xa4, 0xbd, 0xc4, 0x13, 0x53, 0x3d, 0x42, 0x0e, 0x17, 0xbe,
  0x08, 0x5f, 0x46, 0xbd, 0x15, 0x30, 0x8a, 0xbd, 0xe8, 0x00, 0x9d, 0xbd,
  0x85, 0x25, 0x28, 0xbe, 0x7a, 0xcf, 0x13, 0xbe, 0x1f, 0x76, 0xa6, 0x3d,
  0x3e, 0x8e, 0x27, 0x3e, 0x94, 0xb2, 0x44, 0x3e, 0xef, 0xca, 0x81, 0x3c,
  0x29, 0x71, 0x3b, 0xbe, 0x50, 0x86, 0x2f, 0x3e, 0x0c, 0xcb, 0xe3, 0x3b,
  0xac, 0x5e, 0xca, 0xbd, 0xa3, 0x9a, 0x0b, 0x3e, 0x91, 0xdf, 0xc2, 0xbc,
  0x78, 0xe0, 0x4b, 0xbe, 0xb6, 0x24, 0x55, 0x3e, 0x61, 0x2c, 0x88, 0xbd,
  0xe8, 0xb6, 0x7f, 0x3d, 0x3f, 0x18, 0x30, 0x3d, 0xb9, 0x78, 0xe2, 0x3c,
  0x30, 0xc0, 0xf7, 0x3d, 0x4e, 0x3a, 0xd8, 0x3d, 0x80, 0xdd, 0x04, 0xbe,
  0xe5, 0xf2, 0x34, 0x3d, 0xf9, 0x8c, 0x3a, 0x3e, 0x36, 0x1c, 0xf7, 0xbd,
  0x70, 0x52, 0x93, 0xba, 0x32, 0x29, 0x63, 0xbe, 0x7b, 0x94, 0x3b, 0xbd,
  0xba, 0x77, 0x9b, 0xbd, 0xaf, 0x56, 0x54, 0x3e, 0xf8, 0xbf, 0x03, 0x3d,
  0x54, 0x61, 0x12, 0x3e, 0x83, 0x9c, 0x17, 0xbe, 0x87, 0xdc, 0xaa, 0x3c,
  0x86, 0x7a, 0x00, 0xbc, 0x1e, 0x14, 0xa1, 0x3d, 0x30, 0x8d, 0x41, 0xbd,
  0x9b, 0xa4, 0x2a, 0x3e, 0x77, 0x13, 0xaf, 0x3d, 0x03, 0xb2, 0xc6, 0xbb,
  0xaa, 0xf6, 0x69, 0x3c, 0xd7, 0xbf, 0x37, 0x3e, 0x30, 0x59, 0x5d, 0xbd,
  0xa1, 0x1f, 0x41, 0xbe, 0x00, 0xb8, 0xb1, 0x3b, 0xaf, 0xf3, 0x1f, 0x3e,
  0x5b, 0xab, 0x72, 0x3e, 0x24, 0xb9, 0x00, 0x3e, 0xe8, 0xea, 0x5b, 0x3d,
  0x43, 0xc5, 0x13, 0x3e, 0x1c, 0x33, 0x43, 0x3e, 0xb9, 0x98, 0x88, 0x3d,
  0x96, 0xe7, 0x80, 0xbd, 0x90, 0x0f, 0x25, 0x3e, 0xf1, 0x11, 0x54, 0x3d,
  0x57, 0x39, 0x01, 0x3d, 0x98, 0xd8, 0x51, 0xbd, 0xd4, 0xee, 0x25, 0x3e,
  0xbe, 0x77, 0xb9, 0xbd, 0xa2, 0x9f, 0x60, 0x3e, 0xdd, 0x48, 0x4e, 0x3e,
  0x27, 0xcf, 0x10, 0x3e, 0x19, 0x2f, 0xe1, 0xbd, 0xd3, 0x4a, 0x4e, 0xbe,
  0x36, 0xcb, 0x08, 0x3e, 0xb6, 0x04, 0x10, 0xbc, 0xaf, 0x86, 0xa5, 0xbc,
  0x58, 0xe2, 0x37, 0xbe, 0x07, 0xa2, 0x49, 0x3d, 0xdd, 0xed, 0x5d, 0xbe,
  0x85, 0x20, 0x8d, 0xbd, 0x69, 0xc3, 0x9f, 0xbd, 0x3c, 0x8a, 0x9b, 0x3c,
  0x14, 0x80, 0x8c, 0xbd, 0x7f, 0x13, 0x29, 0x3d, 0x32, 0xbb, 0x85, 0xbc,
  0x31, 0x29, 0x17, 0x3c, 0x93, 0x20, 0x77, 0x3e, 0x65, 0x36, 0x9b, 0x3c,
  0x4d, 0x40, 0xa1, 0x3d, 0xd2, 0x9f, 0x43, 0xbe, 0x77, 0xdd, 0x1e, 0x3d,
  0xe8, 0x73, 0x96, 0x3d, 0xf2, 0xb4, 0x9c, 0xbd, 0x74, 0x5e, 0x58, 0xbe,
  0x7a, 0x98, 0x52, 0x3b, 0xee, 0x22, 0x14, 0xbb, 0x28, 0xf0, 0x0a, 0x3e,
  0x06, 0x92, 0x14, 0x3d, 0x0a, 0x20, 0x85, 0x3d, 0x78, 0x3f, 0x0d, 0xbd,
  0x17, 0xc1, 0x09, 0x3e, 0xda, 0x0d, 0xad, 0x3d, 0x9e, 0x0b, 0x50, 0xbe,
  0xb0, 0xb7, 0xdc, 0xbc, 0xff, 0xc9, 0x06, 0xbd, 0xfc, 0x75, 0xbf, 0x3d,
  0x67, 0xc1, 0x2e, 0xbe, 0x75, 0x3b, 0x0d, 0x3e, 0x67, 0xb8, 0x02, 0xbe,
  0x3c, 0x10, 0x7b, 0xbd, 0x03, 0xea, 0x8c, 0x3d, 0xd0, 0x68, 0xe2, 0xbd,
  0x53, 0xa4, 0x10, 0x3d, 0x46, 0xbf, 0x66, 0xbe, 0x94, 0x49, 0x02, 0xbe,
  0x29, 0xd9, 0x71, 0x3d, 0x51, 0x70, 0x73, 0xbc, 0x7e, 0x64, 0x20, 0xbd,
  0x44, 0x06, 0x8e, 0xbd, 0x17, 0xab, 0x9f, 0xbd, 0x64, 0xec, 0xd9, 0xbd,
  0xc8, 0x0a, 0x68, 0x3d, 0x5d, 0xbc, 0xec, 0xbd, 0x70, 0xaf, 0xd5, 0x3d,
  0x7d, 0x00, 0x00, 0xbd, 0xfc, 0x3b, 0x4d, 0x3e, 0x77, 0x63, 0xa4, 0xbd,
  0x2a, 0x8c, 0x10, 0x3e, 0xcd, 0xf2, 0xb8, 0xbd, 0x6b, 0x85, 0xdd, 0xbd,
  0x35, 0xe4, 0xf5, 0xbd, 0x24, 0xce, 0x51, 0xbd, 0xa8, 0x8a, 0xbb, 0x3c,
  0x58, 0x34, 0xd8, 0x3c, 0x1b, 0xd0, 0x1d, 0x3e, 0x3a, 0x8b, 0xa7, 0xbd,
  0x15, 0x06, 0x13, 0x3e, 0x1e, 0xe7, 0xd1, 0x3d, 0xfd, 0xcf, 0x28, 0x3e,
  0x67, 0x84, 0x73, 0xbe, 0x89, 0x6a, 0x5b, 0x3c, 0x4b, 0xff, 0x13, 0xbe,
  0xa9, 0xaf, 0xe5, 0xbd, 0xc8, 0xf2, 0x58, 0xbd, 0xe5, 0xd4, 0xa9, 0x3c,
  0xe3, 0xbe, 0x4b, 0x3e, 0xd9, 0x13, 0x03, 0x3e, 0x00, 0xf7, 0x47, 0xbd,
  0xa4, 0x62, 0x16, 0xbd, 0x67, 0xc6, 0x11, 0x3e, 0x5e, 0xc1, 0x3d, 0xbe,
  0x84, 0x29, 0x29, 0xbe, 0x42, 0xf9, 0xff, 0xff, 0x04, 0x00, 0x00, 0x00,
  0x00, 0x02, 0x00, 0x00, 0x14, 0xd0, 0x7b, 0xbd, 0x1f, 0x37, 0x01, 0xbe,
  0xed, 0x96, 0x34, 0x3d, 0x30, 0x22, 0x04, 0x3e, 0x06, 0x5e, 0x89, 0x3d,
  0xf6, 0x40, 0x4f, 0x3d, 0xce, 0x90, 0x95, 0x3d, 0x76, 0x0a, 0xf4, 0xbb,
  0x0c, 0x66, 0x06, 0x3e, 0x47, 0x7d, 0x09, 0x3d, 0x2b, 0x80, 0x8c, 0x3c,
  0x6e, 0xd7, 0xf3, 0xbc, 0xe4, 0x8c, 0x00, 0xbe, 0xdc, 0x22, 0xc3, 0xbd,
  0x44, 0x9e, 0xe2, 0xbd, 0x1c, 0xd5, 0xac, 0x3d, 0x52, 0x97, 0x75, 0xbd,
  0x29, 0xa4, 0xe4, 0xbd, 0x72, 0x87, 0xaf, 0x3c, 0xb7, 0xb2, 0x00, 0x3e,
  0x54, 0x1d, 0x23, 0xbe, 0x1b, 0x90, 0x35, 0x3e, 0x3a, 0x04, 0xff, 0x3d,
  0x16, 0x6c, 0xd7, 0xbb, 0x20, 0x6a, 0xa1, 0x3d, 0xa4, 0xa4, 0xb9, 0x3d,
  0xe8, 0x6e, 0x1c, 0xbb, 0xbd, 0x4f, 0xcc, 0xbd, 0x48, 0xce, 0x9b, 0xbc,
  0x5e, 0xd9, 0x60, 0x3d, 0x40, 0xa9, 0xb1, 0xbd, 0x87, 0xe5, 0x9c, 0xbd,
  0x2b, 0xf5, 0x4a, 0x3d, 0xe7, 0x5f, 0xca, 0xbd, 0x60, 0xff, 0x0d, 0x3e,
  0x7d, 0xd3, 0x2d, 0x3e, 0x98, 0x28, 0xb2, 0xbd, 0xbd, 0x4d, 0x23, 0xbe,
  0xa4, 0x6a, 0x14, 0xbe, 0xe4, 0x05, 0xe1, 0x3a, 0xbc, 0x91, 0xe6, 0xbd,
  0x6c, 0x59, 0x04, 0xbd, 0xc2, 0x1d, 0x14, 0x3b, 0xe8, 0xa7, 0x98, 0x3c,
  0x1b, 0x45, 0x05, 0xbe, 0x3f, 0x4b, 0x81, 0xbd, 0x84, 0x20, 0x2f, 0xbe,
  0x87, 0xbf, 0x2c, 0x3e, 0xb3, 0xa9, 0x17, 0x3d, 0xba, 0x9e, 0x81, 0xbd,
  0xfc, 0x07, 0xe0, 0xbd, 0xd5, 0x66, 0xa7, 0x3c, 0xb6, 0xac, 0xf7, 0xbb,
  0x15, 0x99, 0x82, 0x3b, 0x70, 0x7e, 0x8b, 0xbc, 0x83, 0x89, 0x53, 0x3d,
  0x71, 0x99, 0x1e, 0x3e, 0x31, 0xc3, 0xda, 0x3d, 0x9c, 0xc9, 0x58, 0x3d,
  0xa5, 0x1b, 0x33, 0x3d, 0x63, 0xe1, 0x10, 0xbe, 0x70, 0xdb, 0x11, 0xbc,
  0x5c, 0x13, 0x2a, 0x3e, 0x9d, 0x78, 0x33, 0xbe, 0xc1, 0x9d, 0x35, 0xbd,
  0x2b, 0x08, 0xdd, 0xbd, 0x2f, 0x3f, 0x07, 0x3e, 0x7f, 0x8c, 0xff, 0xbd,
  0x6d, 0x86, 0xe5, 0xbd, 0xe5, 0x24, 0xbc, 0xbc, 0x5a, 0x9b, 0xab, 0x3d,
  0xf4, 0x96, 0xbe, 0x3d, 0x45, 0x73, 0x2c, 0x3e, 0x44, 0x2f, 0x0a, 0x3c,
  0x97, 0xb2, 0x8b, 0x3d, 0xc9, 0x5e, 0x96, 0x3c, 0xf8, 0xfa, 0xad, 0x39,
  0x11, 0xea, 0xc3, 0x3d, 0x43, 0x35, 0x32, 0xbd, 0x06, 0xac, 0x89, 0xbd,
  0x04, 0x37, 0x2d, 0x3e, 0x32, 0xb2, 0xf2, 0x3d, 0x0b, 0x48, 0x08, 0x3d,
  0x06, 0xbb, 0xfc, 0xbd, 0x68, 0xa4, 0xd9, 0x3c, 0xe4, 0x49, 0x14, 0xbc,
  0x9e, 0x04, 0x03, 0xbe, 0x3c, 0x4c, 0x11, 0x3d, 0xed, 0x9b, 0x35, 0x3e,
  0x8f, 0x2a, 0xea, 0x3d, 0xe6, 0x6a, 0x6a, 0x3e, 0xbf, 0x3b, 0xf1, 0x3c,
  0xad, 0xdb, 0xad, 0x3d, 0x4b, 0x14, 0x1e, 0x3d, 0x5b, 0x6e, 0x83, 0x3d,
  0x88, 0xc1, 0x16, 0xbd, 0xec, 0x06, 0x5a, 0xbd, 0xc1, 0xc9, 0xf8, 0x3d,
  0x39, 0x1b, 0x30, 0x3e, 0x1e, 0x8c, 0xe4, 0x3c, 0x85, 0x01, 0x4c, 0x3d,
  0x86, 0x5b, 0xf6, 0xbc, 0x53, 0xba, 0xaa, 0x3d, 0x00, 0xf8, 0x5e, 0xbd,
  0x5b, 0xee, 0x14, 0xbd, 0x32, 0x36, 0x0f, 0x3e, 0x2e, 0x37, 0x00, 0x3e,
  0xad, 0x60, 0x57, 0xbc, 0xb3, 0x8b, 0x0a, 0x3e, 0x18, 0xa7, 0xdd, 0xbd,
  0x98, 0xab, 0x1a, 0xbe, 0x61, 0xf3, 0x4a, 0x3d, 0x34, 0x1e, 0xc9, 0x3d,
  0x0b, 0xbe, 0x1c, 0xbd, 0xde, 0x05, 0x22, 0xbc, 0xcf, 0x4e, 0x0f, 0xbd,
  0xae, 0xf0, 0xd9, 0x3d, 0xed, 0x97, 0x8e, 0xbd, 0x18, 0x14, 0x6d, 0xbd,
  0x55, 0x2a, 0x02, 0xbe, 0x16, 0x7d, 0x1c, 0xbc, 0xf9, 0xae, 0x96, 0x3d,
  0x90, 0x32, 0xf8, 0x3d, 0x6e, 0x3d, 0x3a, 0x3e, 0x43, 0x80, 0x11, 0xbe,
  0xf6, 0x00, 0xef, 0xbd, 0xff, 0xf9, 0x75, 0x3d, 0x0d, 0x6a, 0x1c, 0xbe,
  0x4e, 0xfb, 0xff, 0xff, 0x04, 0x00, 0x00, 0x00, 0x08, 0x00, 0x00, 0x00,
  0x3b, 0x2b, 0x78, 0x3f, 0x8d, 0xc8, 0x31, 0xbf, 0x62, 0xfb, 0xff, 0xff,
  0x04, 0x00, 0x00, 0x00, 0x00, 0x04, 0x00, 0x00, 0x6b, 0xc1, 0xda, 0x3d,
  0xff, 0xbc, 0x50, 0x3d, 0xf3, 0x28, 0x0b, 0x3e, 0x83, 0xf4, 0x34, 0xbe,
  0xe5, 0x6e, 0x43, 0xbe, 0x7c, 0x7b, 0xea, 0xba, 0xa7, 0x0e, 0x50, 0xbe,
  0xd4, 0xcc, 0xde, 0x3d, 0x7a, 0x6a, 0x4f, 0xbe, 0x6a, 0x9c, 0x1b, 0x3e,
  0xde, 0x59, 0x16, 0x3e, 0xf4, 0xd5, 0x48, 0xbe, 0xff, 0x6f, 0xeb, 0x3d,
  0xc4, 0x13, 0x66, 0xbd, 0x23, 0x2c, 0x23, 0x3e, 0x13, 0xa1, 0xe1, 0xbd,
  0x9b, 0xfd, 0x39, 0x3e, 0x17, 0xec, 0x3c, 0xbd, 0x09, 0x41, 0xf6, 0x3c,
  0xe3, 0xad, 0x81, 0xbe, 0x9c, 0xf3, 0x16, 0xbe, 0xd7, 0x88, 0xa4, 0xbd,
  0x9f, 0x11, 0x39, 0xbe, 0x57, 0x8e, 0x78, 0xbe, 0x44, 0x88, 0xe7, 0xbd,
  0x9c, 0xe3, 0x35, 0xbe, 0x88, 0xf2, 0x04, 0x3e, 0x8a, 0x7a, 0xb5, 0x3c,
  0x40, 0x9c, 0xc4, 0xbb, 0x2e, 0xa3, 0x6d, 0x3d, 0xed, 0x3e, 0x54, 0xbe,
  0x38, 0x47, 0x99, 0xbd, 0x5f, 0x1c, 0xd4, 0x3c, 0x4c, 0x9c, 0x9e, 0x3d,
  0xde, 0x10, 0x59, 0xbe, 0xb4, 0x11, 0x39, 0xbe, 0xdd, 0xeb, 0x2f, 0x3e,
  0x26, 0x86, 0x4e, 0x3e, 0x40, 0x12, 0xd9, 0x3d, 0x06, 0xf2, 0x18, 0xbe,
  0xe0, 0x46, 0xaa, 0xbc, 0xca, 0x27, 0xba, 0xbd, 0xea, 0x24, 0x28, 0xbd,
  0xc0, 0x9f, 0x04, 0x3d, 0x30, 0x8e, 0x30, 0x3c, 0x79, 0x72, 0x59, 0x3e,
  0x37, 0x13, 0x32, 0xbe, 0x4c, 0x6b, 0x59, 0xbd, 0x27, 0xfa, 0x31, 0x3d,
  0x9c, 0x7f, 0x05, 0xbd, 0x2c, 0xee, 0x19, 0xbe, 0x8a, 0xc9, 0xc9, 0x3c,
  0xc4, 0xfd, 0x66, 0xbe, 0xef, 0xb2, 0x28, 0x3e, 0x58, 0x90, 0xbf, 0xbd,
  0xba, 0x03, 0x08, 0x3e, 0x21, 0x4c, 0xd3, 0xbd, 0x9b, 0xb2, 0xff, 0xbd,
  0xba, 0x6e, 0x93, 0xbd, 0xab, 0xe7, 0xa5, 0xbd, 0xc4, 0x29, 0x9f, 0x3d,
  0x96, 0x01, 0x04, 0xbe, 0x54, 0x68, 0x22, 0x3d, 0x8a, 0x69, 0x49, 0xbd,
  0xb5, 0x14, 0xf6, 0x3d, 0xfe, 0xeb, 0xae, 0xbd, 0x59, 0xc0, 0xaf, 0xbd,
  0xc1, 0xfb, 0x39, 0x3e, 0x44, 0x87, 0xad, 0xbc, 0x00, 0x18, 0x4f, 0xbe,
  0xb4, 0x2e, 0xd1, 0xbd, 0x91, 0x83, 0x09, 0x3d, 0x5b, 0xd6, 0x3b, 0xbe,
  0xe1, 0xda, 0xda, 0x3d, 0x22, 0x63, 0x4b, 0xbe, 0x0f, 0xee, 0xad, 0xbd,
  0xc3, 0x42, 0x1a, 0xbc, 0x83, 0xfb, 0xbb, 0xbd, 0xaa, 0xda, 0x4d, 0x3b,
  0x16, 0x44, 0x94, 0xbd, 0xdb, 0x6b, 0x8c, 0xbe, 0x90, 0x9d, 0xb1, 0x3d,
  0x3c, 0x91, 0xe1, 0x3d, 0x56, 0x4d, 0xcb, 0x3d, 0xbc, 0x31, 0xe3, 0x3d,
  0x76, 0x31, 0x8c, 0xbd, 0x8e, 0x38, 0xa8, 0x3d, 0xb5, 0xe4, 0xf8, 0xbd,
  0x76, 0xaf, 0x64, 0xbe, 0x09, 0x26, 0x9e, 0xbe, 0x1e, 0xe4, 0xac, 0x3c,
  0xdc, 0x79, 0x15, 0xbd, 0x3c, 0xef, 0x52, 0xbe, 0x72, 0xb4, 0xc7, 0x3d,
  0xd2, 0xa3, 0x2c, 0x3c, 0xed, 0xc0, 0xfc, 0xbd, 0xd5, 0xa5, 0x99, 0xbd,
  0x1d, 0x69, 0x57, 0xbd, 0x6d, 0xd1, 0x44, 0xbe, 0x8d, 0xcb, 0x46, 0xbe,
  0x3d, 0xc9, 0xb9, 0xbd, 0xe0, 0x06, 0x0e, 0x3c, 0x38, 0x3f, 0xbc, 0xbd,
  0x68, 0x35, 0x82, 0x3c, 0xa1, 0xb1, 0x25, 0xbe, 0x30, 0x76, 0x31, 0x3d,
  0x14, 0x61, 0x4a, 0xbe, 0x41, 0xb1, 0x91, 0x3d, 0x31, 0x45, 0xc2, 0xbd,
  0x21, 0x25, 0xf3, 0x3c, 0x23, 0x46, 0x49, 0xbd, 0x9c, 0x64, 0x62, 0xbe,
  0x89, 0x29, 0x11, 0xbe, 0xe5, 0x9f, 0x28, 0xbe, 0xfa, 0xaf, 0x36, 0x3e,
  0x86, 0x27, 0x72, 0x3d, 0x10, 0x01, 0x60, 0xbd, 0xbe, 0x92, 0x70, 0x3d,
  0xdc, 0xc1, 0x99, 0x3b, 0x70, 0xcd, 0xfa, 0xbc, 0x1e, 0xa7, 0x60, 0x3c,
  0x41, 0x3c, 0x0b, 0xbe, 0x96, 0x0f, 0x85, 0xbd, 0x6c, 0x8c, 0x37, 0xbe,
  0x8d, 0xf3, 0x4f, 0xbe, 0x72, 0x93, 0xaa, 0x3d, 0x2f, 0xc6, 0xec, 0xbd,
  0x2e, 0xb4, 0xf5, 0x3d, 0x6a, 0x14, 0xa3, 0x3d, 0x4c, 0xb7, 0x7e, 0xbd,
  0x19, 0xd4, 0x6d, 0x3e, 0xd6, 0x89, 0x3e, 0x3d, 0x6c, 0xcd, 0x2b, 0x3d,
  0x1c, 0x8e, 0xbe, 0x3d, 0xcc, 0x56, 0xc8, 0xbc, 0x74, 0x19, 0x19, 0xbe,
  0x79, 0xd7, 0xef, 0x3d, 0x9a, 0x07, 0x4a, 0x3e, 0xac, 0xc3, 0x1b, 0xbe,
  0x34, 0x65, 0x8b, 0xbc, 0x12, 0x5b, 0x51, 0xbd, 0x14, 0x71, 0x4f, 0xbe,
  0x01, 0x32, 0x02, 0x3e, 0xb5, 0x56, 0x43, 0x3e, 0x9f, 0xb9, 0x8b, 0x3c,
  0x3f, 0x73, 0x6a, 0xbd, 0x0a, 0xf3, 0xde, 0x3d, 0x53, 0x00, 0x76, 0x3e,
  0x6c, 0x92, 0xe3, 0xbd, 0xa6, 0x91, 0x20, 0x3e, 0xa1, 0x85, 0xb5, 0x3d,
  0x7c, 0x5c, 0x12, 0xbe, 0xa4, 0x24, 0xd4, 0xbd, 0xc4, 0x5d, 0x91, 0xbd,
  0xea, 0xc3, 0x6d, 0xbd, 0x5e, 0x7d, 0x89, 0x3c, 0x92, 0xfc, 0xc1, 0x3d,
  0x40, 0xfd, 0xac, 0x3d, 0x17, 0xf2, 0x30, 0xbe, 0xc2, 0x91, 0x20, 0xbe,
  0xdf, 0xd4, 0x27, 0x3e, 0x1e, 0x2e, 0xcb, 0x3c, 0xac, 0x75, 0xa5, 0x3d,
  0x4b, 0xec, 0xdf, 0xbd, 0x11, 0x79, 0x45, 0x3e, 0xcc, 0x29, 0x3e, 0x3e,
  0x7b, 0x00, 0x01, 0xbd, 0x6e, 0xbd, 0x23, 0x3e, 0x1d, 0xac, 0x2e, 0xbe,
  0x13, 0xac, 0x21, 0x3e, 0x36, 0xea, 0xb2, 0xbd, 0xe4, 0xe0, 0x9c, 0xbd,
  0x29, 0xe4, 0x2e, 0xbe, 0x40, 0x4c, 0x46, 0xbd, 0xa9, 0x21, 0x9d, 0xbd,
  0x5c, 0x08, 0x3a, 0x3e, 0xe6, 0xab, 0x03, 0x3d, 0x93, 0xde, 0x64, 0x3d,
  0xbd, 0xc4, 0x07, 0xbe, 0xe6, 0x98, 0x4d, 0x3e, 0x00, 0x08, 0x18, 0xbe,
  0x57, 0x94, 0x53, 0x3e, 0x65, 0x83, 0x43, 0xbe, 0x2a, 0xd5, 0x3b, 0x3e,
  0x36, 0xc4, 0x7a, 0x3d, 0xdc, 0x52, 0x9c, 0xba, 0xa0, 0x75, 0x40, 0xb9,
  0x80, 0x7a, 0x4a, 0xb8, 0xae, 0xa4, 0xdf, 0x3d, 0x02, 0x4c, 0x66, 0x3d,
  0x3e, 0x47, 0x02, 0x3e, 0x00, 0x58, 0xcf, 0xbd, 0x35, 0xb4, 0x83, 0xbd,
  0xa8, 0xde, 0xf8, 0xbd, 0x86, 0xc2, 0xa4, 0x3d, 0xec, 0xf5, 0x1b, 0xbd,
  0xe9, 0x7c, 0x83, 0x3d, 0x71, 0x54, 0x01, 0x3e, 0x0e, 0x2a, 0x02, 0x3e,
  0x72, 0xd9, 0xe0, 0xbd, 0x1b, 0xd6, 0xc5, 0x3d, 0xef, 0x9c, 0x03, 0x3e,
  0xb6, 0xc8, 0xb5, 0xbd, 0xdc, 0xa6, 0x7f, 0x3d, 0x24, 0xcd, 0x19, 0x39,
  0x68, 0xcf, 0x5d, 0x3b, 0x4d, 0x63, 0x11, 0x3e, 0x66, 0xb5, 0xf5, 0xbd,
  0xae, 0x49, 0xcf, 0xbd, 0xe3, 0x58, 0x3d, 0x3e, 0x7c, 0xa8, 0x1d, 0x3e,
  0xe5, 0x3d, 0x21, 0x3e, 0x97, 0x61, 0x9f, 0x3d, 0xaf, 0x86, 0x8d, 0xbc,
  0xcc, 0x49, 0x0d, 0x3d, 0x9b, 0x13, 0xb4, 0xbd, 0x9e, 0x0d, 0xb2, 0x3c,
  0xdf, 0x27, 0xa2, 0x3d, 0xce, 0xeb, 0x75, 0x3e, 0x8d, 0xa2, 0x36, 0xbb,
  0xf3, 0xbf, 0xd0, 0xbd, 0xff, 0xc8, 0xda, 0x3d, 0x8e, 0x17, 0xdc, 0xbd,
  0x7e, 0x2e, 0x99, 0xbd, 0xc9, 0x86, 0xc4, 0xbd, 0x69, 0x73, 0x4a, 0x3d,
  0xb7, 0x33, 0x44, 0x3e, 0x88, 0xb2, 0x41, 0xbe, 0x68, 0xb3, 0xf8, 0xbd,
  0xed, 0x25, 0x63, 0x3d, 0xfb, 0x24, 0xf1, 0x3d, 0x88, 0xd9, 0x83, 0xbd,
  0xca, 0xac, 0xb1, 0xbd, 0x6a, 0xe5, 0x4b, 0x3e, 0x4b, 0x1c, 0x98, 0x3e,
  0x8d, 0x54, 0x57, 0x3c, 0x6d, 0xe3, 0xc5, 0x3d, 0x64, 0xb7, 0xe7, 0x3d,
  0x26, 0x57, 0x8a, 0xbd, 0x3d, 0x4e, 0x01, 0x3e, 0xb0, 0xb2, 0x93, 0xbb,
  0xf4, 0x29, 0xd1, 0x3c, 0x00, 0xeb, 0xb0, 0xbd, 0x89, 0xc2, 0x05, 0x3c,
  0x68, 0xac, 0x12, 0x3e, 0x48, 0x85, 0xb3, 0x3d, 0x32, 0x93, 0xb1, 0x3b,
  0x2d, 0xc9, 0x23, 0xbe, 0x4c, 0x29, 0x99, 0xbd, 0xd2, 0x44, 0x70, 0xbd,
  0x2b, 0xb0, 0x3a, 0x3e, 0xdb, 0x7c, 0x9f, 0x3d, 0x3b, 0x31, 0x36, 0x3e,
  0x60, 0xb3, 0x5b, 0x3d, 0x09, 0x10, 0x8f, 0x3e, 0x5d, 0x85, 0x1a, 0x3e,
  0x44, 0xfc, 0xff, 0xff, 0x48, 0xfc, 0xff, 0xff, 0x0f, 0x00, 0x00, 0x00,
  0x4d, 0x4c, 0x49, 0x52, 0x20, 0x43, 0x6f, 0x6e, 0x76, 0x65, 0x72, 0x74,
  0x65, 0x64, 0x2e, 0x00, 0x01, 0x00, 0x00, 0x00, 0x14, 0x00, 0x00, 0x00,
  0x00, 0x00, 0x0e, 0x00, 0x18, 0x00, 0x14, 0x00, 0x10, 0x00, 0x0c, 0x00,
  0x08, 0x00, 0x04, 0x00, 0x0e, 0x00, 0x00, 0x00, 0x14, 0x00, 0x00, 0x00,
  0x1c, 0x00, 0x00, 0x00, 0xec, 0x00, 0x00, 0x00, 0xf0, 0x00, 0x00, 0x00,
  0xf4, 0x00, 0x00, 0x00, 0x04, 0x00, 0x00, 0x00, 0x6d, 0x61, 0x69, 0x6e,
  0x00, 0x00, 0x00, 0x00, 0x03, 0x00, 0x00, 0x00, 0x94, 0x00, 0x00, 0x00,
  0x50, 0x00, 0x00, 0x00, 0x14, 0x00, 0x00, 0x00, 0x00, 0x00, 0x0e, 0x00,
  0x1a, 0x00, 0x14, 0x00, 0x10, 0x00, 0x0c, 0x00, 0x0b, 0x00, 0x04, 0x00,
  0x0e, 0x00, 0x00, 0x00, 0x1c, 0x00, 0x00, 0x00, 0x00, 0x00, 0x00, 0x09,
  0x1c, 0x00, 0x00, 0x00, 0x20, 0x00, 0x00, 0x00, 0x01, 0x00, 0x00, 0x00,
  0x00, 0x00, 0x06, 0x00, 0x08, 0x00, 0x04, 0x00, 0x06, 0x00, 0x00, 0x00,
  0x00, 0x00, 0x80, 0x3f, 0x01, 0x00, 0x00, 0x00, 0x07, 0x00, 0x00, 0x00,
  0x01, 0x00, 0x00, 0x00, 0x06, 0x00, 0x00, 0x00, 0xce, 0xff, 0xff, 0xff,
  0x10, 0x00, 0x00, 0x00, 0x00, 0x00, 0x00, 0x08, 0x0c, 0x00, 0x00, 0x00,
  0x10, 0x00, 0x00, 0x00, 0x08, 0xfd, 0xff, 0xff, 0x01, 0x00, 0x00, 0x00,
  0x06, 0x00, 0x00, 0x00, 0x03, 0x00, 0x00, 0x00, 0x05, 0x00, 0x00, 0x00,
  0x01, 0x00, 0x00, 0x00, 0x02, 0x00, 0x00, 0x00, 0x00, 0x00, 0x0e, 0x00,
  0x16, 0x00, 0x00, 0x00, 0x10, 0x00, 0x0c, 0x00, 0x0b, 0x00, 0x04, 0x00,
  0x0e, 0x00, 0x00, 0x00, 0x18, 0x00, 0x00, 0x00, 0x00, 0x00, 0x00, 0x08,
  0x18, 0x00, 0x00, 0x00, 0x1c, 0x00, 0x00, 0x00, 0x00, 0x00, 0x06, 0x00,
  0x08, 0x00, 0x07, 0x00, 0x06, 0x00, 0x00, 0x00, 0x00, 0x00, 0x00, 0x01,
  0x01, 0x00, 0x00, 0x00, 0x05, 0x00, 0x00, 0x00, 0x03, 0x00, 0x00, 0x00,
  0x00, 0x00, 0x00, 0x00, 0x04, 0x00, 0x00, 0x00, 0x03, 0x00, 0x00, 0x00,
  0x01, 0x00, 0x00, 0x00, 0x07, 0x00, 0x00, 0x00, 0x01, 0x00, 0x00, 0x00,
  0x00, 0x00, 0x00, 0x00, 0x08, 0x00, 0x00, 0x00, 0x54, 0x02, 0x00, 0x00,
  0xfc, 0x01, 0x00, 0x00, 0xa8, 0x01, 0x00, 0x00, 0x58, 0x01, 0x00, 0x00,
  0x18, 0x01, 0x00, 0x00, 0xb0, 0x00, 0x00, 0x00, 0x50, 0x00, 0x00, 0x00,
  0x04, 0x00, 0x00, 0x00, 0xe2, 0xfd, 0xff, 0xff, 0x00, 0x00, 0x00, 0x01,
  0x14, 0x00, 0x00, 0x00, 0x1c, 0x00, 0x00, 0x00, 0x1c, 0x00, 0x00, 0x00,
  0x08, 0x00, 0x00, 0x00, 0x24, 0x00, 0x00, 0x00, 0x02, 0x00, 0x00, 0x00,
  0xff, 0xff, 0xff, 0xff, 0x02, 0x00, 0x00, 0x00, 0xcc, 0xfd, 0xff, 0xff,
  0x08, 0x00, 0x00, 0x00, 0x49, 0x64, 0x65, 0x6e, 0x74, 0x69, 0x74, 0x79,
  0x00, 0x00, 0x00, 0x00, 0x02, 0x00, 0x00, 0x00, 0x01, 0x00, 0x00, 0x00,
  0x02, 0x00, 0x00, 0x00, 0x2a, 0xfe, 0xff, 0xff, 0x00, 0x00, 0x00, 0x01,
  0x14, 0x00, 0x00, 0x00, 0x1c, 0x00, 0x00, 0x00, 0x1c, 0x00, 0x00, 0x00,
  0x07, 0x00, 0x00, 0x00, 0x38, 0x00, 0x00, 0x00, 0x02, 0x00, 0x00, 0x00,
  0xff, 0xff, 0xff, 0xff, 0x02, 0x00, 0x00, 0x00, 0x14, 0xfe, 0xff, 0xff,
  0x1e, 0x00, 0x00, 0x00, 0x64, 0x65, 0x6e, 0x73, 0x65, 0x5f, 0x31, 0x5f,
  0x32, 0x2f, 0x4d, 0x61, 0x74, 0x4d, 0x75, 0x6c, 0x3b, 0x64, 0x65, 0x6e,
  0x73, 0x65, 0x5f, 0x31, 0x5f, 0x32, 0x2f, 0x41, 0x64, 0x64, 0x00, 0x00,
  0x02, 0x00, 0x00, 0x00, 0x01, 0x00, 0x00, 0x00, 0x02, 0x00, 0x00, 0x00,
  0x86, 0xfe, 0xff, 0xff, 0x00, 0x00, 0x00, 0x01, 0x14, 0x00, 0x00, 0x00,
  0x1c, 0x00, 0x00, 0x00, 0x1c, 0x00, 0x00, 0x00, 0x06, 0x00, 0x00, 0x00,
  0x40, 0x00, 0x00, 0x00, 0x02, 0x00, 0x00, 0x00, 0xff, 0xff, 0xff, 0xff,
  0x80, 0x00, 0x00, 0x00, 0x70, 0xfe, 0xff, 0xff, 0x27, 0x00, 0x00, 0x00,
  0x64, 0x65, 0x6e, 0x73, 0x65, 0x5f, 0x31, 0x2f, 0x4d, 0x61, 0x74, 0x4d,
  0x75, 0x6c, 0x3b, 0x64, 0x65, 0x6e, 0x73, 0x65, 0x5f, 0x31, 0x2f, 0x52,
  0x65, 0x6c, 0x75, 0x3b, 0x64, 0x65, 0x6e, 0x73, 0x65, 0x5f, 0x31, 0x2f,
  0x41, 0x64, 0x64, 0x00, 0x02, 0x00, 0x00, 0x00, 0x01, 0x00, 0x00, 0x00,
  0x80, 0x00, 0x00, 0x00, 0x3e, 0xff, 0xff, 0xff, 0x00, 0x00, 0x00, 0x01,
  0x10, 0x00, 0x00, 0x00, 0x10, 0x00, 0x00, 0x00, 0x05, 0x00, 0x00, 0x00,
  0x1c, 0x00, 0x00, 0x00, 0xc4, 0xfe, 0xff, 0xff, 0x0e, 0x00, 0x00, 0x00,
  0x64, 0x65, 0x6e, 0x73, 0x65, 0x5f, 0x31, 0x2f, 0x4d, 0x61, 0x74, 0x4d,
  0x75, 0x6c, 0x00, 0x00, 0x02, 0x00, 0x00, 0x00, 0x80, 0x00, 0x00, 0x00,
  0x06, 0x00, 0x00, 0x00, 0x7a, 0xff, 0xff, 0xff, 0x00, 0x00, 0x00, 0x01,
  0x10, 0x00, 0x00, 0x00, 0x10, 0x00, 0x00, 0x00, 0x04, 0x00, 0x00, 0x00,
  0x30, 0x00, 0x00, 0x00, 0x00, 0xff, 0xff, 0xff, 0x23, 0x00, 0x00, 0x00,
  0x64, 0x65, 0x6e, 0x73, 0x65, 0x5f, 0x31, 0x2f, 0x41, 0x64, 0x64, 0x2f,
  0x52, 0x65, 0x61, 0x64, 0x56, 0x61, 0x72, 0x69, 0x61, 0x62, 0x6c, 0x65,
  0x4f, 0x70, 0x2f, 0x72, 0x65, 0x73, 0x6f, 0x75, 0x72, 0x63, 0x65, 0x00,
  0x01, 0x00, 0x00, 0x00, 0x80, 0x00, 0x00, 0x00, 0xc6, 0xff, 0xff, 0xff,
  0x00, 0x00, 0x00, 0x01, 0x10, 0x00, 0x00, 0x00, 0x10, 0x00, 0x00, 0x00,
  0x03, 0x00, 0x00, 0x00, 0x1c, 0x00, 0x00, 0x00, 0x4c, 0xff, 0xff, 0xff,
  0x0f, 0x00, 0x00, 0x00, 0x61, 0x72, 0x69, 0x74, 0x68, 0x2e, 0x63, 0x6f,
  0x6e, 0x73, 0x74, 0x61, 0x6e, 0x74, 0x31, 0x00, 0x01, 0x00, 0x00, 0x00,
  0x02, 0x00, 0x00, 0x00, 0x00, 0x00, 0x16, 0x00, 0x18, 0x00, 0x14, 0x00,
  0x00, 0x00, 0x10, 0x00, 0x0c, 0x00, 0x08, 0x00, 0x00, 0x00, 0x00, 0x00,
  0x00, 0x00, 0x07, 0x00, 0x16, 0x00, 0x00, 0x00, 0x00, 0x00, 0x00, 0x01,
  0x10, 0x00, 0x00, 0x00, 0x10, 0x00, 0x00, 0x00, 0x02, 0x00, 0x00, 0x00,
  0x1c, 0x00, 0x00, 0x00, 0x9c, 0xff, 0xff, 0xff, 0x0e, 0x00, 0x00, 0x00,
  0x61, 0x72, 0x69, 0x74, 0x68, 0x2e, 0x63, 0x6f, 0x6e, 0x73, 0x74, 0x61,
  0x6e, 0x74, 0x00, 0x00, 0x02, 0x00, 0x00, 0x00, 0x02, 0x00, 0x00, 0x00,
  0x80, 0x00, 0x00, 0x00, 0x00, 0x00, 0x16, 0x00, 0x1c, 0x00, 0x18, 0x00,
  0x00, 0x00, 0x14, 0x00, 0x10, 0x00, 0x0c, 0x00, 0x00, 0x00, 0x00, 0x00,
  0x08, 0x00, 0x07, 0x00, 0x16, 0x00, 0x00, 0x00, 0x00, 0x00, 0x00, 0x01,
  0x14, 0x00, 0x00, 0x00, 0x20, 0x00, 0x00, 0x00, 0x20, 0x00, 0x00, 0x00,
  0x01, 0x00, 0x00, 0x00, 0x20, 0x00, 0x00, 0x00, 0x02, 0x00, 0x00, 0x00,
  0xff, 0xff, 0xff, 0xff, 0x06, 0x00, 0x00, 0x00, 0x04, 0x00, 0x04, 0x00,
  0x04, 0x00, 0x00, 0x00, 0x01, 0x00, 0x00, 0x00, 0x78, 0x00, 0x00, 0x00,
  0x02, 0x00, 0x00, 0x00, 0x01, 0x00, 0x00, 0x00, 0x06, 0x00, 0x00, 0x00,
  0x02, 0x00, 0x00, 0x00, 0x20, 0x00, 0x00, 0x00, 0x04, 0x00, 0x00, 0x00,
  0xf4, 0xff, 0xff, 0xff, 0x19, 0x00, 0x00, 0x00, 0x00, 0x00, 0x00, 0x19,
  0x0c, 0x00, 0x0c, 0x00, 0x0b, 0x00, 0x00, 0x00, 0x00, 0x00, 0x04, 0x00,
  0x0c, 0x00, 0x00, 0x00, 0x09, 0x00, 0x00, 0x00, 0x00, 0x00, 0x00, 0x09
};
unsigned int g_model_len = 6048;
